<unk>	0
<s>	0
</s>	0
[PAD]	0
[UNK]	0
[CLS]	0
[SEP]	0
[MASK]	0
[UNK1]	0
[UNK2]	0
[UNK3]	0
[UNK4]	0
[UNK5]	0
▁이	-0
에서	-1
으로	-2
▁년	-3
▁그	-4
▁있	-5
▁대	-6
▁일	-7
▁사	-8
했다	-9
▁가	-10
▁수	-11
었다	-12
▁시	-13
▁지	-14
▁월	-15
▁전	-16
▁하	-17
▁기	-18
▁것	-19
▁.	-20
▁한	-21
▁아	-22
▁정	-23
였다	-24
▁의	-25
▁자	-26
▁주	-27
▁위	-28
▁제	-29
▁중	-30
▁인	-31
하는	-32
▁보	-33
▁다	-34
▁공	-35
▁경	-36
하고	-37
▁세	-38
▁있다	-39
▁부	-40
▁개	-41
▁유	-42
▁조	-43
▁등	-44
▁나	-45
하였다	-46
▁발	-47
되었다	-48
▁연	-49
▁비	-50
▁영	-51
▁모	-52
▁여	-53
▁만	-54
하여	-55
▁선	-56
▁미	-57
▁고	-58
▁동	-59
에는	-60
▁소	-61
으며	-62
▁마	-63
▁오	-64
▁때	-65
▁국	-66
▁상	-67
▁해	-68
이다	-69
에게	-70
▁신	-71
▁않	-72
▁스	-73
▁도	-74
▁후	-75
▁관	-76
지만	-77
▁구	-78
라고	-79
▁명	-80
▁내	-81
▁성	-82
▁서	-83
▁결	-84
▁에	-85
▁당	-86
▁로	-87
▁또	-88
적인	-89
▁방	-90
▁없	-91
▁무	-92
▁통	-93
▁프	-94
▁장	-95
▁차	-96
한다	-97
▁받	-98
▁대한	-99
▁어	-100
▁거	-101
▁최	-102
적으로	-103
면서	-104
들이	-105
▁반	-106
들은	-107
▁말	-108
▁불	-109
▁강	-110
부터	-111
▁진	-112
▁있는	-113
▁노	-114
▁바	-115
까지	-116
▁분	-117
▁문	-118
▁교	-119
▁생	-120
라는	-121
▁되	-122
▁원	-123
▁계	-124
▁출	-125
▁역	-126
▁실	-127
▁남	-128
▁포	-129
에서는	-130
하게	-131
았다	-132
▁우	-133
하기	-134
는데	-135
▁김	-136
▁같	-137
▁과	-138
▁안	-139
▁이후	-140
하였	-141
▁현	-142
▁따	-143
▁작	-144
▁알	-145
된다	-146
▁더	-147
▁예	-148
▁것이	-149
▁파	-150
▁번	-151
▁두	-152
▁많	-153
▁재	-154
▁단	-155
▁한다	-156
▁타	-157
▁미국	-158
으나	-159
▁그러	-160
▁올	-161
학교	-162
▁는	-163
▁를	-164
▁때문	-165
들의	-166
▁평	-167
▁배	-168
▁특	-169
▁또한	-170
▁요	-171
▁자신	-172
▁위해	-173
▁군	-174
▁함	-175
들을	-176
▁회	-177
▁했다	-178
되어	-179
▁음	-180
▁리	-181
▁독	-182
▁초	-183
▁추	-184
▁되었다	-185
▁적	-186
▁피	-187
▁감	-188
▁입	-189
▁그리	-190
▁일본	-191
▁데	-192
▁설	-193
▁종	-194
▁박	-195
▁그는	-196
▁매	-197
▁활	-198
▁시작	-199
▁건	-200
▁달	-201
▁같은	-202
▁당시	-203
▁행	-204
▁열	-205
주의	-206
▁들	-207
▁라	-208
▁새	-209
▁학	-210
▁점	-211
▁기록	-212
▁대해	-213
하며	-214
▁집	-215
▁참	-216
▁민	-217
▁사람	-218
▁그러나	-219
스트	-220
었고	-221
▁외	-222
하지	-223
▁승	-224
▁호	-225
▁처	-226
▁을	-227
▁못	-228
다는	-229
▁에서	-230
에도	-231
▁경기	-232
▁북	-233
▁은	-234
▁다른	-235
▁한국	-236
▁있었다	-237
▁베	-238
▁것을	-239
▁물	-240
레이	-241
▁확	-242
스는	-243
▁때문에	-244
했고	-245
▁크	-246
▁함께	-247
▁양	-248
▁형	-249
▁총	-250
▁따라	-251
▁약	-252
▁변	-253
▁각	-254
▁와	-255
▁운	-256
다고	-257
▁청	-258
▁태	-259
▁사용	-260
▁드	-261
▁직	-262
리아	-263
▁임	-264
▁“	-265
리는	-266
▁아니	-267
기도	-268
▁천	-269
▁저	-270
▁통해	-271
▁목	-272
▁본	-273
▁카	-274
▁뒤	-275
▁것으로	-276
기를	-277
▁많은	-278
▁지역	-279
▁황	-280
▁그리고	-281
▁가장	-282
▁게	-283
▁및	-284
▁투	-285
▁간	-286
▁화	-287
▁표	-288
▁년에	-289
▁주장	-290
▁항	-291
▁세계	-292
▁돌	-293
▁영화	-294
▁된다	-295
▁판	-296
▁그의	-297
▁체	-298
▁왕	-299
▁존	-300
▁토	-301
▁정부	-302
▁밝	-303
▁살	-304
▁트	-305
▁것이다	-306
▁할	-307
▁경우	-308
하면서	-309
▁국가	-310
▁근	-311
▁산	-312
통령	-313
▁활동	-314
리를	-315
▁심	-316
▁언	-317
▁프랑	-318
▁브	-319
기에	-320
대로	-321
▁증	-322
▁첫	-323
▁하였다	-324
▁다시	-325
▁사이	-326
▁대통령	-327
▁·	-328
졌다	-329
▁라고	-330
스의	-331
▁프로	-332
상을	-333
이나	-334
▁패	-335
▁중국	-336
▁들어	-337
하였고	-338
▁필	-339
되는	-340
▁큰	-341
지는	-342
▁사회	-343
▁법	-344
▁번째	-345
▁속	-346
▁편	-347
▁합	-348
▁만들	-349
되었	-350
▁논	-351
사를	-352
▁광	-353
▁하는	-354
▁문제	-355
▁치	-356
이었다	-357
▁자신의	-358
▁높	-359
시아	-360
▁복	-361
▁권	-362
▁여러	-363
▁모두	-364
▁가지	-365
▁시즌	-366
▁있었	-367
▁이러	-368
▁죽	-369
▁것은	-370
▁이러한	-371
▁완	-372
▁연구	-373
민국	-374
▁이어	-375
▁하나	-376
지를	-377
▁영국	-378
▁야	-379
▁하지만	-380
▁메	-381
▁금	-382
▁앞	-383
▁정치	-384
▁의해	-385
▁모든	-386
▁병	-387
력을	-388
▁일에	-389
▁처음	-390
들에게	-391
▁코	-392
▁생각	-393
▁백	-394
▁순	-395
성을	-396
▁충	-397
▁취	-398
▁앨	-399
▁대한민국	-400
▁독일	-401
▁사실	-402
▁걸	-403
▁했	-404
▁선수	-405
▁맞	-406
▁발표	-407
▁이상	-408
▁레	-409
▁폭	-410
▁검	-411
▁플	-412
▁이에	-413
▁끝	-414
▁창	-415
▁사건	-416
▁팀	-417
▁대표	-418
▁서울	-419
▁이름	-420
되고	-421
▁철	-422
▁아이	-423
▁규	-424
▁네	-425
들과	-426
하다	-427
▁결과	-428
▁삼	-429
▁이는	-430
회의	-431
▁새로	-432
▁이루	-433
보다	-434
▁협	-435
▁일부	-436
▁친	-437
장을	-438
서는	-439
▁시간	-440
▁디	-441
도록	-442
▁채	-443
▁억	-444
▁이를	-445
▁정도	-446
▁버	-447
▁맡	-448
이며	-449
▁페	-450
▁동안	-451
▁조선	-452
▁쓰	-453
▁위한	-454
▁음악	-455
▁현재	-456
▁발매	-457
이었	-458
▁등의	-459
정을	-460
▁루	-461
▁막	-462
▁으로	-463
거나	-464
랜드	-465
에서도	-466
▁포함	-467
▁영향	-468
▁있어	-469
▁앨범	-470
▁있으며	-471
▁다음	-472
▁가능	-473
▁일어	-474
▁공격	-475
기가	-476
성이	-477
시키	-478
▁전쟁	-479
로서	-480
리스	-481
▁넘	-482
▁허	-483
▁한편	-484
▁관련	-485
▁준	-486
▁잘	-487
▁받았다	-488
▁날	-489
▁라는	-490
는다	-491
리가	-492
▁얻	-493
▁프랑스	-494
▁계속	-495
▁손	-496
▁좋	-497
인이	-498
▁애	-499
▁곡	-500
▁받아	-501
▁히	-502
자가	-503
렸다	-504
▁하고	-505
▁즉	-506
▁나타	-507
▁캐	-508
▁발견	-509
▁않았다	-510
▁질	-511
▁여성	-512
▁민주	-513
▁진행	-514
이라고	-515
했던	-516
▁된	-517
▁벌	-518
▁담	-519
하면	-520
▁환	-521
대의	-522
▁뉴	-523
▁참여	-524
▁존재	-525
했으며	-526
이는	-527
▁국민	-528
▁극	-529
▁러	-530
▁책	-531
▁측	-532
이고	-533
▁경제	-534
▁등을	-535
▁결국	-536
▁특히	-537
▁클	-538
▁말했다	-539
부분	-540
▁후보	-541
도를	-542
▁관계	-543
▁새로운	-544
▁개의	-545
▁이용	-546
▁누	-547
로는	-548
▁이미	-549
▁년에는	-550
대를	-551
▁인해	-552
▁탈	-553
▁돌아	-554
위원	-555
자의	-556
▁세기	-557
▁결정	-558
▁그녀	-559
▁성공	-560
▁음반	-561
이라는	-562
▁잡	-563
혔다	-564
▁줄	-565
났다	-566
▁비판	-567
▁이유	-568
림픽	-569
▁절	-570
인의	-571
▁발생	-572
인은	-573
▁자유	-574
▁출연	-575
▁아니라	-576
▁귀	-577
▁온	-578
▁찾	-579
▁명의	-580
▁이루어	-581
▁감독	-582
▁싱	-583
▁홍	-584
▁최고	-585
▁알려	-586
▁갖	-587
▁필요	-588
스가	-589
▁윤	-590
▁로마	-591
스를	-592
드는	-593
▁악	-594
▁년대	-595
▁접	-596
▁없는	-597
▁이것	-598
▁평가	-599
▁용	-600
▁케	-601
▁최초	-602
화를	-603
식을	-604
하기도	-605
▁육	-606
기는	-607
▁골	-608
▁빌	-609
디오	-610
나라	-611
▁볼	-612
처럼	-613
▁차지	-614
되었고	-615
권을	-616
원을	-617
하였으며	-618
▁되어	-619
▁곳	-620
▁작품	-621
▁힘	-622
리의	-623
자는	-624
▁인터	-625
해서	-626
▁상황	-627
▁있던	-628
▁대부분	-629
▁급	-630
자를	-631
사가	-632
▁축	-633
▁계획	-634
▁폴	-635
스와	-636
로부터	-637
▁밀	-638
▁운동	-639
▁또는	-640
▁보고	-641
니아	-642
▁커	-643
왔다	-644
▁월에	-645
▁제작	-646
▁별	-647
▁식	-648
▁블	-649
▁갈	-650
▁머	-651
이트	-652
▁역시	-653
▁역할	-654
군의	-655
▁탄	-656
▁없다	-657
전을	-658
▁싱글	-659
▁대회	-660
▁부분	-661
▁위를	-662
▁테	-663
르는	-664
위를	-665
대는	-666
▁이전	-667
▁유럽	-668
▁얼	-669
▁밝혔다	-670
제를	-671
▁구성	-672
▁상태	-673
▁길	-674
▁않았	-675
▁혼	-676
시에	-677
▁떠	-678
▁뮤	-679
▁올림픽	-680
▁난	-681
학자	-682
▁매우	-683
▁일에는	-684
▁중심	-685
음을	-686
▁않고	-687
해야	-688
▁국제	-689
▁대학	-690
▁방송	-691
국의	-692
기로	-693
▁교육	-694
▁열린	-695
▁엔	-696
▁북한	-697
▁효	-698
▁스타	-699
▁일반	-700
▁러시아	-701
▁몇	-702
▁암	-703
이라	-704
하려	-705
▁빠	-706
제는	-707
▁등이	-708
▁전투	-709
▁가지고	-710
▁향	-711
▁같이	-712
▁데뷔	-713
▁조직	-714
▁헤	-715
므로	-716
▁만들어	-717
하던	-718
▁역사	-719
스터	-720
▁마지	-721
▁문화	-722
니다	-723
▁리그	-724
장이	-725
▁다양	-726
▁수도	-727
▁농	-728
갔다	-729
란드	-730
▁게임	-731
군은	-732
력이	-733
▁않은	-734
▁요구	-735
제로	-736
▁노래	-737
▁연기	-738
▁내용	-739
▁폐	-740
▁늑	-741
대학	-742
▁느	-743
▁도시	-744
되지	-745
대학교	-746
간의	-747
▁따르	-748
▁중요	-749
▁침	-750
▁많이	-751
시켰	-752
자로	-753
▁하였	-754
▁의원	-755
▁마지막	-756
가는	-757
▁직접	-758
▁먹	-759
등학교	-760
▁정책	-761
과의	-762
▁과정	-763
▁모습	-764
▁며	-765
▁방법	-766
으로써	-767
에서의	-768
됐다	-769
▁경찰	-770
▁이라고	-771
▁뿐	-772
하자	-773
치를	-774
▁설명	-775
인을	-776
▁사망	-777
냈다	-778
▁공연	-779
▁비롯	-780
▁영향을	-781
슈타	-782
였던	-783
▁기술	-784
▁인정	-785
리에	-786
▁수상	-787
▁피해	-788
▁소속	-789
다가	-790
도가	-791
라마	-792
지에	-793
▁몰	-794
정부	-795
▁반대	-796
▁면	-797
▁대신	-798
▁글	-799
▁보여	-800
와의	-801
장은	-802
전히	-803
▁년부터	-804
수를	-805
▁발전	-806
▁위에	-807
라이	-808
스타	-809
대가	-810
▁독립	-811
했지만	-812
대에	-813
▁공개	-814
▁뜻	-815
이자	-816
회를	-817
▁계약	-818
▁지원	-819
▁범	-820
기의	-821
▁거의	-822
▁타이	-823
나는	-824
▁높은	-825
▁따르면	-826
그램	-827
▁지방	-828
▁쿠	-829
사의	-830
▁있다고	-831
▁의미	-832
▁핵	-833
성의	-834
▁노동	-835
▁이야	-836
▁전체	-837
민주	-838
이지	-839
▁이론	-840
으로서	-841
▁있다는	-842
도의	-843
리고	-844
▁좌	-845
▁있고	-846
▁팔	-847
▁그가	-848
▁잠	-849
▁월드	-850
▁구조	-851
▁크게	-852
제의	-853
▁하여	-854
▁격	-855
▁헌	-856
임을	-857
치는	-858
▁선거	-859
▁개발	-860
▁있을	-861
▁학생	-862
▁형태	-863
했는데	-864
리카	-865
▁등장	-866
▁지금	-867
혁명	-868
▁우승	-869
▁다양한	-870
▁드라마	-871
▁싸	-872
▁홈	-873
격을	-874
▁영어	-875
▁이라는	-876
▁쇼	-877
▁될	-878
▁눈	-879
▁워	-880
지가	-881
▁군사	-882
▁않는	-883
▁처음으로	-884
진다	-885
▁것이라고	-886
▁콘	-887
운동	-888
▁시작했다	-889
의를	-890
▁시민	-891
었으며	-892
▁엄	-893
머니	-894
선을	-895
▁동시에	-896
수가	-897
지로	-898
▁아버	-899
▁석	-900
▁업	-901
▁일으	-902
스로	-903
▁너	-904
▁나라	-905
▁유지	-906
으로는	-907
수는	-908
▁이런	-909
▁지구	-910
제가	-911
▁판매	-912
▁프리	-913
▁봉	-914
했으나	-915
▁키	-916
대한	-917
부의	-918
사는	-919
▁공식	-920
▁라이	-921
▁묘	-922
들에	-923
우스	-924
▁되는	-925
▁지지	-926
▁언론	-927
지고	-928
▁없었다	-929
으로부터	-930
▁몸	-931
수의	-932
▁뮤직	-933
▁배우	-934
▁압	-935
▁과학	-936
▁주요	-937
전에서	-938
▁둘	-939
▁희	-940
문을	-941
▁중앙	-942
점을	-943
▁자기	-944
▁기간	-945
▁명이	-946
▁각각	-947
▁강희	-948
▁바로	-949
▁작업	-950
▁역할을	-951
▁그런	-952
▁아닌	-953
도로	-954
원이	-955
▁받았	-956
▁퍼	-957
▁소련	-958
심을	-959
원의	-960
▁선정	-961
▁위치	-962
이가	-963
렇게	-964
성은	-965
▁불구	-966
▁자신이	-967
▁떨	-968
▁그것	-969
▁받은	-970
▁설립	-971
트는	-972
▁어떤	-973
▁송	-974
▁확인	-975
군이	-976
▁미국의	-977
▁여자	-978
▁해당	-979
장에	-980
되었으며	-981
계를	-982
비아	-983
▁학교	-984
▁뛰	-985
이었던	-986
운데	-987
▁터	-988
했다고	-989
리즈	-990
▁더욱	-991
▁실패	-992
▁니	-993
▁휴	-994
지의	-995
트를	-996
▁오스트	-997
▁달러	-998
▁표현	-999
▁생활	-1000
상이	-1001
원은	-1002
▁설치	-1003
▁능	-1004
쳤다	-1005
▁인간	-1006
▁출전	-1007
▁베이	-1008
▁추가	-1009
▁태양	-1010
▁서로	-1011
▁이탈	-1012
▁불구하고	-1013
동안	-1014
자들은	-1015
▁”	-1016
▁티	-1017
▁팬	-1018
적을	-1019
▁제기	-1020
드를	-1021
▁출신	-1022
부를	-1023
자인	-1024
▁관한	-1025
▁공동	-1026
▁프로그램	-1027
▁대중	-1028
밖에	-1029
사에	-1030
어를	-1031
으면	-1032
▁종교	-1033
▁주로	-1034
▁방문	-1035
▁년까지	-1036
명을	-1037
상의	-1038
▁운영	-1039
▁가운데	-1040
▁때문이다	-1041
▁보내	-1042
▁하지	-1043
▁기존	-1044
르크	-1045
▁없이	-1046
▁참가	-1047
서를	-1048
시켰다	-1049
▁혹	-1050
랐다	-1051
▁지나	-1052
▁활동을	-1053
하였으나	-1054
대표	-1055
▁드러	-1056
▁이때	-1057
▁진출	-1058
부는	-1059
이를	-1060
전에	-1061
▁숙	-1062
▁실시	-1063
▁플레이	-1064
▁먼	-1065
▁칼	-1066
금을	-1067
▁상당	-1068
▁찾아	-1069
▁유명	-1070
▁긴	-1071
▁가족	-1072
▁가진	-1073
▁논란	-1074
▁특별	-1075
▁퇴	-1076
장의	-1077
한다는	-1078
▁에서는	-1079
▁놓	-1080
▁섬	-1081
▁떨어	-1082
▁늘	-1083
▁그를	-1084
▁상대	-1085
▁지도	-1086
▁있는데	-1087
▁개월	-1088
▁개인	-1089
▁증가	-1090
군을	-1091
당의	-1092
르게	-1093
회는	-1094
이어	-1095
▁박근	-1096
▁어머니	-1097
▁경기에서	-1098
▁슈	-1099
라도	-1100
▁사업	-1101
▁좋은	-1102
▁행동	-1103
▁후에	-1104
▁낮	-1105
오는	-1106
▁개최	-1107
▁자연	-1108
상으로	-1109
▁월드컵	-1110
물을	-1111
▁가수	-1112
▁따라서	-1113
▁않는다	-1114
인다	-1115
촬영	-1116
▁결혼	-1117
▁언급	-1118
▁자체	-1119
▁정보	-1120
▁박근혜	-1121
▁견	-1122
▁움	-1123
▁녹	-1124
대중	-1125
레스	-1126
▁훈	-1127
▁차트	-1128
장에서	-1129
▁월에는	-1130
▁맥	-1131
▁이동	-1132
▁지휘	-1133
▁붙	-1134
소를	-1135
▁남아	-1136
▁올라	-1137
▁우리	-1138
▁이와	-1139
드의	-1140
화국	-1141
▁혁명	-1142
하는데	-1143
▁곧	-1144
트의	-1145
▁승리	-1146
자들이	-1147
▁풍	-1148
사로	-1149
▁생산	-1150
단을	-1151
독교	-1152
▁이라	-1153
▁제외	-1154
▁시리즈	-1155
▁부족	-1156
▁어린	-1157
▁이탈리아	-1158
▁싶	-1159
감을	-1160
단의	-1161
어나	-1162
▁가까	-1163
▁변화	-1164
▁연합	-1165
▁조사	-1166
주는	-1167
▁국내	-1168
▁반응	-1169
▁시절	-1170
▁혐	-1171
▁선발	-1172
▁제국	-1173
▁중요한	-1174
▁촬영	-1175
▁그리스	-1176
중에	-1177
▁고려	-1178
▁과거	-1179
▁되고	-1180
▁움직	-1181
▁환경	-1182
장으로	-1183
▁이유로	-1184
▁컴	-1185
호를	-1186
▁이끌	-1187
했다는	-1188
▁끌	-1189
▁옹	-1190
구를	-1191
리지	-1192
▁연속	-1193
▁지적	-1194
▁착	-1195
▁적용	-1196
하기로	-1197
안을	-1198
▁기준	-1199
▁사랑	-1200
성과	-1201
▁이해	-1202
▁맨	-1203
도는	-1204
▁건설	-1205
▁것에	-1206
▁기능	-1207
이스	-1208
▁도입	-1209
▁사고	-1210
▁위원	-1211
▁옮	-1212
▁흥	-1213
▁그룹	-1214
▁작은	-1215
▁비슷	-1216
▁믿	-1217
했을	-1218
▁밝혀	-1219
▁형성	-1220
▁문재	-1221
▁준비	-1222
▁이름을	-1223
▁내려	-1224
▁초기	-1225
▁교황	-1226
▁제시	-1227
되면서	-1228
▁이상의	-1229
▁이르	-1230
▁충돌	-1231
▁흔	-1232
당은	-1233
▁받고	-1234
▁이다	-1235
▁어려	-1236
들도	-1237
리와	-1238
▁브라	-1239
▁의견	-1240
▁제공	-1241
사와	-1242
움을	-1243
▁이번	-1244
▁지난	-1245
시켜	-1246
▁마이	-1247
▁기록했다	-1248
▁득	-1249
부에	-1250
▁기독교	-1251
▁망	-1252
▁기원	-1253
▁뉴욕	-1254
▁전국	-1255
▁사이에	-1256
성에	-1257
▁인물	-1258
▁전문	-1259
▁지속	-1260
▁하며	-1261
▁김대중	-1262
약을	-1263
▁달리	-1264
었던	-1265
▁그래	-1266
▁임명	-1267
▁못했다	-1268
▁최초로	-1269
▁펼	-1270
▁스페	-1271
▁어느	-1272
▁최진	-1273
▁이것은	-1274
▁정규	-1275
▁트레이	-1276
▁주장했다	-1277
▁돈	-1278
▁응	-1279
드리	-1280
과를	-1281
멤버	-1282
▁개체	-1283
▁데이	-1284
▁조정	-1285
▁관리	-1286
▁너무	-1287
▁넘어	-1288
▁조지	-1289
▁추진	-1290
▁이들은	-1291
▁민족	-1292
▁아들	-1293
었는데	-1294
▁되었고	-1295
▁비롯한	-1296
▁솔	-1297
세를	-1298
학적	-1299
▁부산	-1300
▁비교	-1301
▁요청	-1302
▁정신	-1303
▁최종	-1304
정희	-1305
▁선택	-1306
▁보다	-1307
▁위로	-1308
▁헌법	-1309
▁현대	-1310
▁인터넷	-1311
▁타이틀	-1312
정한	-1313
▁거부	-1314
▁건륭	-1315
▁레이	-1316
쪽으로	-1317
회에서	-1318
▁강화	-1319
▁멤버	-1320
▁배치	-1321
▁과정에서	-1322
▁빈	-1323
▁웨	-1324
▁강조	-1325
▁규모	-1326
▁담당	-1327
▁방식	-1328
▁이로	-1329
▁궁	-1330
▁울	-1331
도에	-1332
인민	-1333
▁명령	-1334
▁변경	-1335
▁선언	-1336
▁그녀는	-1337
▁옥	-1338
▁전에	-1339
▁차례	-1340
▁친구	-1341
하도록	-1342
▁잉	-1343
마다	-1344
하겠	-1345
렀다	-1346
원에	-1347
▁강력	-1348
▁목표	-1349
▁보호	-1350
▁아무	-1351
▁그들의	-1352
무를	-1353
▁황제	-1354
회가	-1355
▁만나	-1356
▁여기	-1357
한다고	-1358
▁대해서	-1359
▁최진실	-1360
▁밴	-1361
▁잃	-1362
▁흑	-1363
단이	-1364
▁아직	-1365
▁의한	-1366
하거나	-1367
▁획	-1368
상에	-1369
진을	-1370
▁정권	-1371
▁폴란드	-1372
▁딸	-1373
회에	-1374
▁대학교	-1375
▁기본	-1376
▁연결	-1377
과는	-1378
없이	-1379
트로	-1380
▁걸쳐	-1381
▁불가	-1382
어로	-1383
▁분석	-1384
▁지배	-1385
▁바이	-1386
▁수준	-1387
하였는데	-1388
함으로써	-1389
적이	-1390
▁결승	-1391
▁부정	-1392
▁오늘	-1393
▁전통	-1394
▁혹은	-1395
▁풀	-1396
이의	-1397
▁검찰	-1398
▁년의	-1399
▁정당	-1400
▁지진	-1401
▁낙	-1402
위는	-1403
▁동맹	-1404
▁시도	-1405
▁그들은	-1406
▁징	-1407
치고	-1408
▁실험	-1409
▁장면	-1410
▁최고의	-1411
▁것이었다	-1412
드가	-1413
어는	-1414
▁기업	-1415
▁아래	-1416
▁않아	-1417
▁점을	-1418
▁통일	-1419
▁엘	-1420
역을	-1421
있는	-1422
자와	-1423
▁아우	-1424
▁외국	-1425
▁층	-1426
▁장기	-1427
▁정부는	-1428
▁갑	-1429
▁씨	-1430
리로	-1431
▁도착	-1432
▁항공	-1433
▁모습을	-1434
▁있었던	-1435
▁겨	-1436
▁벤	-1437
▁슬	-1438
만을	-1439
▁거두	-1440
▁뛰어	-1441
▁예술	-1442
▁사실을	-1443
▁두고	-1444
▁먼저	-1445
▁수행	-1446
▁외교	-1447
▁일이	-1448
▁해결	-1449
습니다	-1450
▁상대로	-1451
▁완전히	-1452
▁색	-1453
겼다	-1454
인과	-1455
지지	-1456
▁노무	-1457
▁산업	-1458
▁예정	-1459
하지만	-1460
▁일본의	-1461
▁일어나	-1462
연구	-1463
▁만에	-1464
▁분야	-1465
▁졸	-1466
명의	-1467
문에	-1468
▁이렇게	-1469
▁맺	-1470
▁왜	-1471
리트	-1472
스크	-1473
▁개혁	-1474
▁경험	-1475
▁나온	-1476
▁파견	-1477
▁사람이	-1478
어가	-1479
▁유일	-1480
▁거쳐	-1481
▁소설	-1482
원으로	-1483
전이	-1484
체의	-1485
▁만든	-1486
▁평화	-1487
달을	-1488
정은	-1489
▁벌어	-1490
▁사상	-1491
▁원래	-1492
▁일을	-1493
▁박정희	-1494
▁인터뷰	-1495
▁있었고	-1496
▁정치적	-1497
▁깊	-1498
▁염	-1499
불어	-1500
수로	-1501
식이	-1502
▁보도	-1503
관을	-1504
▁연방	-1505
▁최초의	-1506
▁센	-1507
고를	-1508
▁세는	-1509
▁있게	-1510
▁지급	-1511
리에서	-1512
▁더불어	-1513
▁크리스	-1514
르고	-1515
키는	-1516
▁태어	-1517
▁있지만	-1518
러는	-1519
▁발언	-1520
이기도	-1521
▁있어서	-1522
이션	-1523
▁출판	-1524
루스	-1525
만이	-1526
웠다	-1527
행을	-1528
▁소녀	-1529
▁실제	-1530
▁홈런	-1531
학과	-1532
▁등에	-1533
▁마음	-1534
▁말을	-1535
▁유전	-1536
학생	-1537
▁방어	-1538
▁일부터	-1539
드로	-1540
▁파괴	-1541
▁깨	-1542
단은	-1543
비를	-1544
▁비해	-1545
▁해석	-1546
▁프랑스는	-1547
▁탐	-1548
▁국정	-1549
▁기자	-1550
▁노력	-1551
▁대해서는	-1552
기와	-1553
인데	-1554
▁밤	-1555
▁나는	-1556
▁수록	-1557
▁점령	-1558
▁제안	-1559
▁월부터	-1560
관이	-1561
보드	-1562
정이	-1563
▁재판	-1564
시키는	-1565
▁등으로	-1566
▁컨	-1567
▁보인다	-1568
▁정도로	-1569
▁쉽	-1570
동차	-1571
▁명을	-1572
▁얼마	-1573
▁문제가	-1574
사우	-1575
위에	-1576
▁비난	-1577
▁지시	-1578
▁평균	-1579
▁표면	-1580
른다	-1581
스턴	-1582
지와	-1583
체를	-1584
▁가져	-1585
▁개념	-1586
▁남북	-1587
▁적극	-1588
▁주변	-1589
▁한다고	-1590
량을	-1591
르의	-1592
▁보통	-1593
▁살아	-1594
▁야구	-1595
▁자주	-1596
▁콜	-1597
▁사라	-1598
▁중심으로	-1599
▁척	-1600
▁휘	-1601
계의	-1602
톨릭	-1603
▁공산	-1604
▁아르	-1605
▁위협	-1606
▁최근	-1607
▁최대	-1608
▁아시아	-1609
▁찬	-1610
교육	-1611
부가	-1612
스템	-1613
화가	-1614
▁방영	-1615
▁포켓	-1616
▁땅	-1617
려고	-1618
았고	-1619
▁기반	-1620
▁년간	-1621
▁한반	-1622
▁사람들이	-1623
▁익	-1624
▁훌	-1625
가를	-1626
료를	-1627
▁이사	-1628
▁획득	-1629
으므로	-1630
▁궤	-1631
▁칭	-1632
만에	-1633
의로	-1634
텔레	-1635
▁에피	-1636
원에서	-1637
▁괴	-1638
계에	-1639
운드	-1640
학의	-1641
▁반면	-1642
▁육군	-1643
▁후반	-1644
▁올랐다	-1645
슈타인은	-1646
린다	-1647
어서	-1648
였고	-1649
체가	-1650
▁경쟁	-1651
▁보이	-1652
▁시대	-1653
▁인사	-1654
글랜드	-1655
▁노무현	-1656
▁넓	-1657
▁관심을	-1658
▁스스로	-1659
▁꾸	-1660
리오	-1661
졌고	-1662
▁나오	-1663
▁위험	-1664
▁통합	-1665
위가	-1666
▁고대	-1667
▁나머	-1668
▁수용	-1669
으면서	-1670
▁받아들	-1671
▁정부의	-1672
▁듣	-1673
시킨	-1674
신을	-1675
지게	-1676
▁졸업	-1677
▁벨	-1678
▁윌	-1679
지역	-1680
▁동물	-1681
▁선보	-1682
▁세력	-1683
▁임시	-1684
▁가톨릭	-1685
▁기원전	-1686
▁갖고	-1687
▁이들	-1688
▁캐나	-1689
▁보였다	-1690
▁광주	-1691
▁근거	-1692
▁잉글랜드	-1693
▁넣	-1694
되기	-1695
치가	-1696
▁나카	-1697
▁인구	-1698
▁지하	-1699
▁출시	-1700
▁타율	-1701
▁문제를	-1702
▁에피소	-1703
▁포함한	-1704
▁겪	-1705
릭터	-1706
▁예를	-1707
▁유대	-1708
▁맡았다	-1709
▁흐	-1710
트가	-1711
▁소개	-1712
하다는	-1713
▁대하여	-1714
▁유엔	-1715
▁직후	-1716
▁판단	-1717
위원회	-1718
▁포켓몬	-1719
▁뇌	-1720
▁십	-1721
규모	-1722
정에	-1723
▁블랙	-1724
▁훈련	-1725
▁인기를	-1726
▁있도록	-1727
▁앤	-1728
▁잔	-1729
니는	-1730
▁물리	-1731
▁복귀	-1732
▁특징	-1733
▁패배	-1734
보다는	-1735
자들의	-1736
▁대부분의	-1737
▁런	-1738
▁캠	-1739
리타	-1740
▁의사	-1741
▁그대로	-1742
▁붕	-1743
과학	-1744
당을	-1745
▁것도	-1746
▁물질	-1747
▁역을	-1748
▁연주	-1749
▁인도	-1750
▁이야기	-1751
우는	-1752
▁기념	-1753
▁불러	-1754
▁성장	-1755
▁시티	-1756
▁여전히	-1757
초등학교	-1758
동을	-1759
실을	-1760
▁대응	-1761
▁방향	-1762
▁시청	-1763
▁않을	-1764
▁우주	-1765
▁집단	-1766
▁토론	-1767
▁캐릭터	-1768
▁벗	-1769
가의	-1770
되며	-1771
아가	-1772
▁달성	-1773
▁동일	-1774
▁전략	-1775
▁하기	-1776
▁했고	-1777
인들은	-1778
인으로	-1779
▁일어난	-1780
▁오스트리아	-1781
형을	-1782
▁금지	-1783
▁반란	-1784
▁신경	-1785
▁신문	-1786
▁그녀의	-1787
비전	-1788
선이	-1789
설을	-1790
진이	-1791
히려	-1792
받았다	-1793
프리카	-1794
▁때까지	-1795
▁청나라	-1796
▁국가대표	-1797
▁헬	-1798
리그	-1799
피언	-1800
학을	-1801
▁기타	-1802
▁대선	-1803
▁때는	-1804
▁활약	-1805
▁놀	-1806
▁답	-1807
▁것과	-1808
▁수가	-1809
▁청와	-1810
▁촉	-1811
계가	-1812
사일	-1813
소는	-1814
▁본격	-1815
▁비트	-1816
▁스위	-1817
▁오후	-1818
▁충분	-1819
▁모델	-1820
▁참석	-1821
▁통과	-1822
▁비디오	-1823
▁오늘날	-1824
▁캐나다	-1825
▁닥	-1826
레일	-1827
선은	-1828
진은	-1829
▁약속	-1830
▁이듬	-1831
▁타임	-1832
적이고	-1833
▁아버지	-1834
▁알려져	-1835
▁하면서	-1836
▁한다는	-1837
류의	-1838
문화	-1839
▁대체	-1840
▁물론	-1841
▁예상	-1842
▁학년	-1843
▁합의	-1844
가지	-1845
들로	-1846
량이	-1847
업을	-1848
▁대전	-1849
▁모양	-1850
▁스테	-1851
▁텔레	-1852
▁국회의	-1853
▁실제로	-1854
▁주었다	-1855
▁삶	-1856
▁썼	-1857
내는	-1858
조의	-1859
▁규정	-1860
▁작곡	-1861
▁정식	-1862
▁못하고	-1863
▁위해서	-1864
▁끼	-1865
▁챔	-1866
함을	-1867
했기	-1868
▁건물	-1869
▁까지	-1870
▁단체	-1871
▁명예	-1872
▁못한	-1873
▁변호	-1874
▁영역	-1875
▁전달	-1876
되기도	-1877
▁대한민국의	-1878
▁멀	-1879
르트	-1880
▁책임	-1881
▁사이의	-1882
▁시스템	-1883
▁위하여	-1884
법을	-1885
직을	-1886
▁개봉	-1887
▁떠나	-1888
▁보수	-1889
▁의혹	-1890
▁적이	-1891
▁접근	-1892
▁조성	-1893
▁중에	-1894
▁체포	-1895
▁케플	-1896
▁확보	-1897
▁기록을	-1898
▁대통령의	-1899
로의	-1900
워드	-1901
있다	-1902
종의	-1903
▁로스	-1904
▁전두	-1905
▁국민의	-1906
▁만들었다	-1907
소가	-1908
연합	-1909
화의	-1910
▁스피	-1911
▁시기	-1912
▁알고	-1913
▁옹정	-1914
▁주도	-1915
▁취임	-1916
▁오히려	-1917
▁숨	-1918
간에	-1919
구스	-1920
량의	-1921
로를	-1922
케이	-1923
▁마르	-1924
▁열차	-1925
▁형식	-1926
하다고	-1927
▁승리를	-1928
▁없다고	-1929
▁영국의	-1930
▁챔피언	-1931
겠다	-1932
널리	-1933
되자	-1934
소의	-1935
▁각종	-1936
▁만주	-1937
시키고	-1938
▁정부가	-1939
스에	-1940
정책	-1941
해를	-1942
▁관측	-1943
▁도쿄	-1944
▁에이	-1945
▁좋아	-1946
▁치료	-1947
메리카	-1948
▁나타나	-1949
▁들어가	-1950
나이	-1951
대와	-1952
▁구속	-1953
▁다만	-1954
▁뿐만	-1955
▁영토	-1956
▁장관	-1957
▁제한	-1958
▁추정	-1959
▁행정	-1960
▁문재인	-1961
▁겸	-1962
니메	-1963
▁기초	-1964
▁남자	-1965
▁바람	-1966
▁안타	-1967
▁어떻	-1968
▁클럽	-1969
▁보여주	-1970
▁비슷한	-1971
▁던	-1972
선의	-1973
▁보면	-1974
▁부르	-1975
▁정확	-1976
▁제도	-1977
▁집중	-1978
▁나머지	-1979
▁빌보드	-1980
▁아니다	-1981
▁이듬해	-1982
▁낳	-1983
▁탑	-1984
가가	-1985
아의	-1986
정보	-1987
▁김보	-1988
▁상징	-1989
▁세포	-1990
▁오래	-1991
▁밖	-1992
위의	-1993
이에	-1994
▁만큼	-1995
▁불과	-1996
▁정상	-1997
▁체결	-1998
▁김보름	-1999
▁말한다	-2000
▁몽	-2001
사회	-2002
이드	-2003
▁네덜	-2004
▁따른	-2005
▁시행	-2006
▁안에	-2007
▁이외	-2008
▁잘못	-2009
▁판결	-2010
▁해외	-2011
였으며	-2012
▁지역의	-2013
▁짧	-2014
론을	-2015
어들	-2016
▁권한	-2017
▁기관	-2018
▁안정	-2019
▁추측	-2020
▁투표	-2021
인민공	-2022
▁관련된	-2023
레일리아	-2024
군과	-2025
지도	-2026
해의	-2027
▁바다	-2028
사에서	-2029
▁그래서	-2030
▁했지만	-2031
▁쓴	-2032
러운	-2033
비에	-2034
▁간의	-2035
▁교수	-2036
▁바뀌	-2037
▁베컴	-2038
▁사태	-2039
▁세의	-2040
▁아마	-2041
▁전혀	-2042
▁천문	-2043
▁하루	-2044
▁제대로	-2045
명이	-2046
인공	-2047
점이	-2048
트리	-2049
▁가르	-2050
▁런던	-2051
▁불리	-2052
▁스포	-2053
▁우선	-2054
▁어떻게	-2055
▁덕	-2056
▁샤	-2057
가와	-2058
이로	-2059
장과	-2060
▁나서	-2061
▁민간	-2062
▁발달	-2063
▁분류	-2064
▁이명	-2065
▁있기	-2066
▁전기	-2067
▁축구	-2068
▁특정	-2069
▁강력한	-2070
▁경기를	-2071
▁공격을	-2072
▁차지했다	-2073
러의	-2074
▁내부	-2075
▁동계	-2076
▁마련	-2077
▁묘사	-2078
▁논란이	-2079
▁사회적	-2080
▁중국의	-2081
▁빨	-2082
상과	-2083
상은	-2084
▁동원	-2085
▁맡아	-2086
▁앞서	-2087
▁기존의	-2088
▁프로젝	-2089
▁펜	-2090
기관	-2091
산을	-2092
▁단순	-2093
▁마찬	-2094
▁수표	-2095
▁증거	-2096
드리히	-2097
었으나	-2098
▁하나님	-2099
▁납	-2100
▁강한	-2101
▁널리	-2102
▁우려	-2103
▁주목	-2104
음에도	-2105
▁공연을	-2106
▁알려진	-2107
▁「	-2108
▁습	-2109
▁폰	-2110
만의	-2111
많은	-2112
▁불법	-2113
▁선고	-2114
▁수는	-2115
▁전자	-2116
▁중화	-2117
▁발표했다	-2118
▁빅	-2119
경을	-2120
라스	-2121
소에	-2122
시마	-2123
조를	-2124
▁국무	-2125
▁근처	-2126
▁끝나	-2127
▁안전	-2128
▁효과	-2129
지에서	-2130
▁가까운	-2131
▁수많은	-2132
▁하나의	-2133
▁빛	-2134
▁캘	-2135
력은	-2136
▁관심	-2137
▁구체	-2138
▁선출	-2139
▁연예	-2140
▁완성	-2141
선에서	-2142
▁않았고	-2143
▁유명한	-2144
▁전두환	-2145
▁맹	-2146
군에	-2147
술을	-2148
용을	-2149
▁건축	-2150
▁교회	-2151
▁끝에	-2152
▁부여	-2153
▁사드	-2154
▁상호	-2155
▁없어	-2156
▁인디	-2157
▁종합	-2158
▁헤이	-2159
▁윈	-2160
식은	-2161
▁나치	-2162
▁단계	-2163
▁인민	-2164
었지만	-2165
인들이	-2166
▁프리드리히	-2167
▁오스트레일리아	-2168
▁뽑	-2169
▁쌍	-2170
▁쌓	-2171
▁쪽	-2172
기고	-2173
난다	-2174
단체	-2175
리포	-2176
▁나가	-2177
▁등과	-2178
▁바탕	-2179
▁주민	-2180
▁측면	-2181
비디오	-2182
되었는데	-2183
▁사회주의	-2184
▁흡	-2185
위로	-2186
터테	-2187
▁유사	-2188
▁저항	-2189
▁결과를	-2190
▁일까지	-2191
▁프랑스의	-2192
▁굴	-2193
▁융	-2194
트에	-2195
▁논문	-2196
▁메이	-2197
▁몇몇	-2198
▁진보	-2199
자들을	-2200
민주주의	-2201
▁균	-2202
▁푸	-2203
당이	-2204
시킬	-2205
▁교통	-2206
▁나폴	-2207
▁반발	-2208
▁인한	-2209
▁콘서	-2210
▁입장을	-2211
▁필요한	-2212
▁대통령이	-2213
▁품	-2214
국이	-2215
롭게	-2216
▁그렇	-2217
▁노예	-2218
▁점차	-2219
로서의	-2220
▁속에서	-2221
▁월까지	-2222
▁네덜란드	-2223
▁뮤직비디오	-2224
단에	-2225
당한	-2226
시는	-2227
인먼	-2228
▁갈등	-2229
▁늑대	-2230
▁스튜	-2231
▁행사	-2232
스에서	-2233
터테인먼	-2234
라인	-2235
선에	-2236
인지	-2237
▁관찰	-2238
▁득점	-2239
▁수사	-2240
▁에너	-2241
▁자료	-2242
▁확정	-2243
▁회복	-2244
▁사람은	-2245
▁아우구스	-2246
▁옛	-2247
구가	-2248
국을	-2249
도와	-2250
령관	-2251
이기	-2252
▁거주	-2253
▁국방	-2254
▁바꾸	-2255
▁부문	-2256
▁소유	-2257
▁처리	-2258
▁행성	-2259
▁활용	-2260
일랜드	-2261
▁자신을	-2262
▁한국의	-2263
▁랭	-2264
두고	-2265
안에	-2266
▁노르	-2267
▁닥터	-2268
▁무렵	-2269
▁살해	-2270
▁수립	-2271
▁아내	-2272
▁언어	-2273
▁이민	-2274
▁자살	-2275
▁중단	-2276
▁지명	-2277
▁하게	-2278
▁확대	-2279
메달을	-2280
▁한나라	-2281
려는	-2282
방송	-2283
▁다르	-2284
▁명칭	-2285
▁신인	-2286
▁얼굴	-2287
▁진입	-2288
하려는	-2289
▁공화국	-2290
▁나왔다	-2291
▁독일의	-2292
▁불리는	-2293
▁웹	-2294
수한	-2295
스럽	-2296
화된	-2297
▁됐다	-2298
▁스톤	-2299
▁신화	-2300
▁이승	-2301
▁제거	-2302
▁초반	-2303
▁외에도	-2304
▁의하면	-2305
▁젊	-2306
▁죄	-2307
라의	-2308
파의	-2309
하의	-2310
▁귀족	-2311
▁사례	-2312
▁여겨	-2313
▁오스	-2314
▁전차	-2315
▁허용	-2316
▁확실	-2317
▁힘을	-2318
상에서	-2319
▁사실이	-2320
▁빼	-2321
▁찍	-2322
▁훨	-2323
다른	-2324
로가	-2325
정치	-2326
▁같다	-2327
▁구축	-2328
▁보유	-2329
▁부터	-2330
▁비행	-2331
▁스카	-2332
▁시험	-2333
▁여론	-2334
▁여름	-2335
▁제출	-2336
▁훨씬	-2337
▁희생	-2338
▁이름으로	-2339
▁뒷	-2340
▁잭	-2341
도우	-2342
부와	-2343
이센	-2344
이크	-2345
전의	-2346
▁가정	-2347
▁건강	-2348
▁경향	-2349
▁누구	-2350
▁미래	-2351
▁엄청	-2352
▁전반	-2353
▁회의	-2354
▁것처럼	-2355
▁했으나	-2356
▁가능성이	-2357
전은	-2358
프로	-2359
▁광고	-2360
▁내가	-2361
▁밖에	-2362
▁선교	-2363
▁세월	-2364
▁입학	-2365
▁주의	-2366
▁경기에	-2367
▁나카모	-2368
▁때에는	-2369
▁이것이	-2370
▁일반적으로	-2371
▁덧	-2372
▁앙	-2373
자에	-2374
적은	-2375
프트	-2376
▁거래	-2377
▁대립	-2378
▁에게	-2379
▁옮겨	-2380
▁전해	-2381
▁경우가	-2382
▁영화는	-2383
▁했으며	-2384
▁대통령은	-2385
국은	-2386
디어	-2387
비스	-2388
시를	-2389
▁그림	-2390
▁마을	-2391
▁밝히	-2392
▁않다	-2393
▁전환	-2394
▁제주	-2395
▁하다	-2396
▁중에서	-2397
▁민주주의	-2398
▁묻	-2399
▁읽	-2400
격이	-2401
이던	-2402
질을	-2403
▁동료	-2404
▁되지	-2405
▁등록	-2406
▁받는	-2407
▁범죄	-2408
▁쉽게	-2409
▁알아	-2410
▁인식	-2411
▁조건	-2412
성으로	-2413
▁나중에	-2414
▁미사일	-2415
▁고등학교	-2416
로운	-2417
시의	-2418
와는	-2419
평양	-2420
호는	-2421
▁발행	-2422
▁부모	-2423
▁원칙	-2424
▁주는	-2425
▁채널	-2426
가지로	-2427
▁통해서	-2428
적으로는	-2429
▁멸	-2430
렸고	-2431
리어	-2432
영은	-2433
음이	-2434
▁공간	-2435
▁공화	-2436
▁구분	-2437
▁유로	-2438
▁이주	-2439
▁해서	-2440
하려고	-2441
▁관계를	-2442
▁번째로	-2443
▁시간이	-2444
▁있었지만	-2445
▁프로이센	-2446
인민공화국	-2447
▁시작하였다	-2448
기술	-2449
느냐	-2450
스카	-2451
일을	-2452
제에	-2453
▁거절	-2454
▁논의	-2455
▁등은	-2456
▁라며	-2457
▁마리	-2458
▁윤잉	-2459
▁팀의	-2460
겠다고	-2461
에게는	-2462
체스터	-2463
▁계약을	-2464
▁로리타	-2465
▁사실상	-2466
▁미국에서	-2467
▁끊	-2468
▁팝	-2469
버트	-2470
퓨터	-2471
▁강제	-2472
▁근대	-2473
▁도중	-2474
▁뒤에	-2475
▁어렵	-2476
▁오른	-2477
▁옥타	-2478
▁유리	-2479
▁폭발	-2480
▁경우에는	-2481
▁트레이드	-2482
익을	-2483
▁기여	-2484
▁소재	-2485
▁스트	-2486
▁야마	-2487
▁역대	-2488
▁연장	-2489
▁운행	-2490
▁자본	-2491
▁작용	-2492
▁조금	-2493
▁조약	-2494
▁해달	-2495
▁히틀	-2496
하다가	-2497
▁계획을	-2498
▁대규모	-2499
▁이명박	-2500
▁있으나	-2501
▁자리를	-2502
▁있었는데	-2503
▁듯	-2504
나가	-2505
베르	-2506
정의	-2507
▁대구	-2508
▁보병	-2509
▁식민	-2510
▁불가능	-2511
▁자동차	-2512
▁주인공	-2513
▁평가를	-2514
▁하였고	-2515
▁되었으며	-2516
▁사람들은	-2517
▁칠	-2518
▁컵	-2519
담을	-2520
▁감소	-2521
▁생물	-2522
▁오르	-2523
▁패션	-2524
졌으며	-2525
▁스페인	-2526
▁스포츠	-2527
▁우승을	-2528
▁캘리포	-2529
▁것이라는	-2530
▁지역에서	-2531
노동	-2532
문이	-2533
사관	-2534
하이	-2535
▁녹음	-2536
▁심각	-2537
▁합류	-2538
▁했던	-2539
▁민주당	-2540
▁사건을	-2541
▁사건이	-2542
▁유일한	-2543
▁컴퓨터	-2544
▁컬	-2545
▁가는	-2546
▁기억	-2547
▁반복	-2548
▁생존	-2549
▁에는	-2550
▁이래	-2551
▁작가	-2552
▁종료	-2553
▁통제	-2554
되었던	-2555
▁가능한	-2556
▁그렇게	-2557
▁다음과	-2558
▁만드는	-2559
▁미국은	-2560
▁정책을	-2561
▁마찬가지로	-2562
▁–	-2563
스코	-2564
안이	-2565
지방	-2566
▁겨울	-2567
▁결합	-2568
▁비밀	-2569
▁서식	-2570
▁왔다	-2571
▁제목	-2572
▁투입	-2573
▁한번	-2574
점으로	-2575
▁엔터테인먼	-2576
▁주장하였다	-2577
▁곤	-2578
▁욕	-2579
리게	-2580
주를	-2581
▁경영	-2582
▁레코	-2583
▁본래	-2584
▁이란	-2585
▁재정	-2586
▁최소	-2587
▁페르	-2588
▁홍콩	-2589
▁그에게	-2590
▁인간의	-2591
▁꼬	-2592
단과	-2593
원과	-2594
조는	-2595
품을	-2596
▁교체	-2597
▁김영	-2598
▁다이	-2599
▁대륙	-2600
▁법률	-2601
▁성립	-2602
▁위반	-2603
▁자리	-2604
▁지켜	-2605
▁확장	-2606
▁그런데	-2607
▁늑대는	-2608
▁데이비	-2609
되었으나	-2610
▁있었으며	-2611
▁텔레비전	-2612
▁캘리포니아	-2613
▁핀	-2614
생활	-2615
어진	-2616
이사	-2617
토니	-2618
▁가입	-2619
▁뜻을	-2620
▁작성	-2621
▁것이라	-2622
▁없다는	-2623
▁이유는	-2624
▁아우구스투	-2625
▁갤	-2626
간다	-2627
경제	-2628
보를	-2629
해진	-2630
▁귀국	-2631
▁남부	-2632
▁비록	-2633
▁사는	-2634
▁사무	-2635
▁속에	-2636
▁아카	-2637
▁요한	-2638
▁윌리	-2639
▁이슬	-2640
▁인권	-2641
▁돌아가	-2642
▁프로듀	-2643
▁혐의로	-2644
▁섭	-2645
다운	-2646
▁결성	-2647
▁미터	-2648
▁알렉	-2649
▁있지	-2650
▁질병	-2651
겠다는	-2652
았으며	-2653
중학교	-2654
▁하나로	-2655
▁대표적인	-2656
▁이루어진	-2657
▁롯	-2658
구의	-2659
미를	-2660
뱅크	-2661
어야	-2662
영화	-2663
찌르	-2664
하라	-2665
▁다섯	-2666
▁당선	-2667
▁롯데	-2668
▁병사	-2669
▁입장	-2670
▁정착	-2671
▁지정	-2672
▁티베	-2673
▁해야	-2674
과대학	-2675
하고자	-2676
▁발생한	-2677
▁윈도우	-2678
▁지역에	-2679
▁지지를	-2680
▁왔	-2681
경찰	-2682
력의	-2683
움이	-2684
준다	-2685
치의	-2686
▁논쟁	-2687
▁다루	-2688
▁분노	-2689
▁분위	-2690
▁이적	-2691
▁젊은	-2692
▁사람의	-2693
▁위치한	-2694
▁이슬람	-2695
▁한반도	-2696
▁형태로	-2697
▁대상으로	-2698
▁아프리카	-2699
▁냉	-2700
▁족	-2701
▁혈	-2702
▁훗	-2703
같은	-2704
리기	-2705
자들	-2706
제와	-2707
지털	-2708
▁무역	-2709
▁올랐	-2710
▁적은	-2711
▁전개	-2712
▁출발	-2713
▁폐지	-2714
▁핵심	-2715
▁민주화	-2716
▁방법을	-2717
▁시기에	-2718
▁역사상	-2719
▁올해의	-2720
▁술	-2721
공항	-2722
드와	-2723
력과	-2724
만큼	-2725
받은	-2726
비는	-2727
사건	-2728
았던	-2729
우수	-2730
일이	-2731
프는	-2732
▁그린	-2733
▁부상	-2734
▁사냥	-2735
▁세가	-2736
▁수입	-2737
▁스웨	-2738
▁시각	-2739
▁없고	-2740
▁이집	-2741
▁잡아	-2742
▁케이	-2743
▁타고	-2744
▁제외한	-2745
▁맨체스터	-2746
▁인터뷰에서	-2747
▁늦	-2748
▁록	-2749
▁액	-2750
▁홀	-2751
문의	-2752
으니	-2753
하에	-2754
후의	-2755
▁국회	-2756
▁물러	-2757
▁반영	-2758
▁서양	-2759
▁정의	-2760
▁트리	-2761
▁시간을	-2762
▁이라며	-2763
▁멜	-2764
▁옷	-2765
▁즐	-2766
로스	-2767
물이	-2768
사인	-2769
서관	-2770
시가	-2771
일은	-2772
▁개선	-2773
▁그에	-2774
▁기획	-2775
▁덧붙	-2776
▁분리	-2777
▁오픈	-2778
▁유니	-2779
▁지키	-2780
▁차량	-2781
▁혼란	-2782
더라도	-2783
▁구성된	-2784
▁디지털	-2785
▁강희제는	-2786
▁있었으나	-2787
▁좀	-2788
섰다	-2789
즈는	-2790
즈의	-2791
▁곡을	-2792
▁나와	-2793
▁낮은	-2794
▁내세	-2795
▁대기	-2796
▁오랜	-2797
▁전역	-2798
▁조작	-2799
▁죽은	-2800
▁진화	-2801
▁초대	-2802
▁항상	-2803
▁현실	-2804
었다고	-2805
▁내용을	-2806
▁노래를	-2807
▁뛰어난	-2808
▁통하여	-2809
▁롤	-2810
내고	-2811
력에	-2812
부아	-2813
소년	-2814
시코	-2815
인에	-2816
▁복잡	-2817
▁인천	-2818
▁해안	-2819
력으로	-2820
지면서	-2821
▁당시의	-2822
▁도움을	-2823
▁에피소드	-2824
▁옥타비아	-2825
▁짓	-2826
선거	-2827
스테	-2828
체는	-2829
▁고전	-2830
▁받게	-2831
▁생겨	-2832
▁세우	-2833
▁완전	-2834
▁진압	-2835
▁탈출	-2836
▁포기	-2837
▁히로	-2838
▁것이며	-2839
▁명으로	-2840
▁베스트	-2841
▁사람을	-2842
▁인디언	-2843
▁하였으며	-2844
권에	-2845
리자	-2846
수혁	-2847
시간	-2848
▁가리	-2849
▁개시	-2850
▁내놓	-2851
▁대상	-2852
▁돈을	-2853
▁라틴	-2854
▁머물	-2855
▁무시	-2856
▁지식	-2857
▁훗날	-2858
▁브리트	-2859
▁상황에서	-2860
▁써	-2861
러스	-2862
류를	-2863
수록	-2864
종은	-2865
평을	-2866
▁되면	-2867
▁마침	-2868
▁부인	-2869
▁상승	-2870
▁세이	-2871
▁쇼트	-2872
▁스토	-2873
▁은퇴	-2874
▁잠시	-2875
▁파이	-2876
▁하면	-2877
▁내렸다	-2878
▁때부터	-2879
▁받았고	-2880
▁스웨덴	-2881
▁앞에서	-2882
▁앞으로	-2883
▁어워드	-2884
▁일으켰	-2885
▁국가대표팀	-2886
▁낭	-2887
▁엠	-2888
▁칸	-2889
모토	-2890
부로	-2891
비가	-2892
사업	-2893
어의	-2894
진의	-2895
차를	-2896
▁골을	-2897
▁기대	-2898
▁남성	-2899
▁느끼	-2900
▁동의	-2901
▁만약	-2902
▁보장	-2903
▁북쪽	-2904
▁붕괴	-2905
▁상업	-2906
▁썼다	-2907
▁안철	-2908
▁요시	-2909
▁종목	-2910
▁통치	-2911
▁포르	-2912
우스는	-2913
찌르레	-2914
▁세기에	-2915
▁이들의	-2916
▁이름이	-2917
▁임수혁	-2918
▁점에서	-2919
▁정도의	-2920
▁지원을	-2921
▁하는데	-2922
▁했는데	-2923
자들에게	-2924
▁덴	-2925
▁틀	-2926
낸다	-2927
론가	-2928
마귀	-2929
성애	-2930
신이	-2931
어져	-2932
자리	-2933
지기	-2934
▁글을	-2935
▁나누	-2936
▁목소	-2937
▁무대	-2938
▁배경	-2939
▁빠른	-2940
▁솔로	-2941
▁이은	-2942
▁한미	-2943
▁과정을	-2944
▁라디오	-2945
▁운동을	-2946
▁인기가	-2947
▁시작되었다	-2948
▁댄	-2949
스키	-2950
신교	-2951
조사	-2952
통을	-2953
▁공작	-2954
▁기울	-2955
▁도달	-2956
▁이혼	-2957
▁저지	-2958
▁주한	-2959
▁탄생	-2960
▁라부아	-2961
▁엄청난	-2962
슈타인의	-2963
▁기록하며	-2964
▁사이에서	-2965
▁옥타비아누	-2966
▁쉬	-2967
권의	-2968
나의	-2969
르가	-2970
워크	-2971
재를	-2972
전쟁	-2973
족의	-2974
▁수출	-2975
▁영웅	-2976
▁오전	-2977
▁철도	-2978
▁세월호	-2979
▁안토니	-2980
▁윌리엄	-2981
▁아일랜드	-2982
▁하였으나	-2983
▁옆	-2984
▁율	-2985
아는	-2986
었을	-2987
일러	-2988
트와	-2989
훼손	-2990
▁그때	-2991
▁그해	-2992
▁김규	-2993
▁무장	-2994
▁보컬	-2995
▁분명	-2996
▁암살	-2997
▁장악	-2998
▁전시	-2999
▁특수	-3000
▁포위	-3001
점에서	-3002
플레이	-3003
▁불렀다	-3004
▁상당히	-3005
▁애니메	-3006
▁올렸다	-3007
▁의해서	-3008
▁타이틀곡	-3009
▁긍	-3010
▁켈	-3011
▁튀	-3012
▁핫	-3013
▁혜	-3014
거리	-3015
분을	-3016
산업	-3017
서에	-3018
스팅	-3019
신의	-3020
▁개정	-3021
▁단일	-3022
▁둘러	-3023
▁스티	-3024
▁십자	-3025
▁예수	-3026
▁올려	-3027
▁작전	-3028
▁증명	-3029
▁증언	-3030
▁트로	-3031
까지는	-3032
▁베이징	-3033
▁의원은	-3034
▁이전에	-3035
▁덮	-3036
▁둥	-3037
▁춤	-3038
▁흘	-3039
났고	-3040
미터	-3041
석을	-3042
지며	-3043
질의	-3044
특별	-3045
▁건너	-3046
▁국립	-3047
▁빠져	-3048
▁시장	-3049
▁심지	-3050
▁예측	-3051
▁중반	-3052
▁차별	-3053
▁트랙	-3054
까마귀	-3055
스트로	-3056
이지만	-3057
인들의	-3058
트에서	-3059
▁마이클	-3060
▁반응을	-3061
▁비트겐	-3062
▁얻었다	-3063
사우루스	-3064
▁기준으로	-3065
▁밑	-3066
▁찰	-3067
나무	-3068
▁나무	-3069
▁넘는	-3070
▁동아	-3071
▁밴드	-3072
▁번의	-3073
▁보는	-3074
▁채택	-3075
나이티	-3076
부르크	-3077
▁되면서	-3078
▁상당한	-3079
▁시즌을	-3080
▁않으면	-3081
▁인하여	-3082
▁제국의	-3083
▁현재의	-3084
▁바탕으로	-3085
▁유나이티	-3086
무원	-3087
받고	-3088
받아	-3089
센터	-3090
일보	-3091
자기	-3092
주교	-3093
▁민중	-3094
▁반드	-3095
▁받지	-3096
▁생성	-3097
▁설득	-3098
▁신청	-3099
▁아티	-3100
▁안산	-3101
▁연극	-3102
▁이른	-3103
▁자금	-3104
▁즉위	-3105
▁플라	-3106
멕시코	-3107
▁나오는	-3108
▁기록하였다	-3109
▁웃	-3110
디션	-3111
명은	-3112
전문	-3113
▁근무	-3114
▁긍정	-3115
▁김일	-3116
▁네트	-3117
▁달라	-3118
▁도로	-3119
▁많다	-3120
▁미니	-3121
▁부활	-3122
▁수정	-3123
▁슈퍼	-3124
▁승부	-3125
▁시에	-3126
▁아주	-3127
▁영입	-3128
▁측은	-3129
자에게	-3130
▁그러한	-3131
▁우리는	-3132
▁줄어들	-3133
고등학교	-3134
▁스튜디오	-3135
▁발표하였다	-3136
▁객	-3137
▁꿈	-3138
류가	-3139
어도	-3140
연을	-3141
조가	-3142
학은	-3143
▁갖추	-3144
▁검토	-3145
▁비용	-3146
▁사단	-3147
▁순위	-3148
▁연대	-3149
▁이뤄	-3150
▁투쟁	-3151
▁회원	-3152
당했다	-3153
▁개신교	-3154
▁시대의	-3155
▁사용하는	-3156
▁시작으로	-3157
▁이야기를	-3158
▁르	-3159
유의	-3160
율을	-3161
임스	-3162
조직	-3163
증을	-3164
피아	-3165
함에	-3166
▁가해	-3167
▁개입	-3168
▁김연	-3169
▁남쪽	-3170
▁북아	-3171
▁스파	-3172
▁신성	-3173
▁약탈	-3174
▁예산	-3175
▁조각	-3176
▁죽음	-3177
▁취소	-3178
▁통한	-3179
▁평등	-3180
▁필리	-3181
▁해군	-3182
▁희망	-3183
부에서	-3184
▁년대에	-3185
▁블랙홀	-3186
▁이후로	-3187
▁대회에서	-3188
▁밝혀졌다	-3189
▁위해서는	-3190
▁존재한다	-3191
▁킬	-3192
▁헨	-3193
레옹	-3194
사카	-3195
슨은	-3196
야마	-3197
▁구단	-3198
▁깊은	-3199
▁남은	-3200
▁되자	-3201
▁받을	-3202
▁업무	-3203
▁의료	-3204
▁의회	-3205
▁이곳	-3206
▁이기	-3207
▁이제	-3208
▁임금	-3209
▁해도	-3210
▁협력	-3211
격으로	-3212
계에서	-3213
스러운	-3214
해졌다	-3215
▁성적을	-3216
▁이후에	-3217
▁참여한	-3218
▁최우수	-3219
▁나폴레옹	-3220
▁일본에서	-3221
▁자유주의	-3222
▁애니메이션	-3223
▁金	-3224
▁봄	-3225
국에	-3226
당에	-3227
번째	-3228
▁가로	-3229
▁고용	-3230
▁놓고	-3231
▁늘어	-3232
▁대비	-3233
▁부대	-3234
▁인종	-3235
▁재산	-3236
▁주교	-3237
▁창조	-3238
▁카를	-3239
▁편성	-3240
케이팅	-3241
▁과학자	-3242
▁기록한	-3243
▁반드시	-3244
▁지역을	-3245
▁출연했다	-3246
▁만슈타인은	-3247
▁샌	-3248
그룹	-3249
끄는	-3250
데미	-3251
도시	-3252
바이	-3253
생을	-3254
화는	-3255
▁국왕	-3256
▁그와	-3257
▁기계	-3258
▁무엇	-3259
▁생명	-3260
▁설정	-3261
▁수비	-3262
▁장애	-3263
▁지닌	-3264
▁보냈다	-3265
▁앞두고	-3266
▁여기에	-3267
▁작업을	-3268
▁캐스팅	-3269
▁목적으로	-3270
▁é	-3271
국가	-3272
락을	-3273
린은	-3274
서가	-3275
점은	-3276
퍼스	-3277
▁기사	-3278
▁문학	-3279
▁새끼	-3280
▁소송	-3281
▁승인	-3282
▁시위	-3283
▁아키	-3284
▁없을	-3285
▁절대	-3286
▁종종	-3287
▁경기도	-3288
▁내에서	-3289
▁책임을	-3290
▁피해를	-3291
▁알려졌다	-3292
동의	-3293
모를	-3294
어와	-3295
치로	-3296
▁계산	-3297
▁계승	-3298
▁마치	-3299
▁사후	-3300
▁알게	-3301
▁팀은	-3302
▁항의	-3303
▁향해	-3304
▁호소	-3305
주었다	-3306
▁그것을	-3307
▁어려운	-3308
▁움직임	-3309
▁이것을	-3310
하였지만	-3311
▁받아들여	-3312
▁세계에서	-3313
▁수상했다	-3314
▁평가했다	-3315
▁마지막으로	-3316
물의	-3317
복을	-3318
소로	-3319
스탄	-3320
음악	-3321
프를	-3322
▁년이	-3323
▁동부	-3324
▁듣고	-3325
▁마무	-3326
▁번역	-3327
▁삼성	-3328
▁여행	-3329
▁오리	-3330
▁의심	-3331
▁자이	-3332
▁전면	-3333
▁짧은	-3334
▁탄핵	-3335
▁형제	-3336
▁의하여	-3337
▁이로써	-3338
▁이름은	-3339
▁청와대	-3340
하겠다고	-3341
▁둔	-3342
버그	-3343
평가	-3344
▁감염	-3345
▁건국	-3346
▁맞아	-3347
▁방해	-3348
▁성경	-3349
▁세워	-3350
▁에드	-3351
사우루	-3352
소에서	-3353
스에게	-3354
▁그들이	-3355
▁마침내	-3356
▁문제로	-3357
▁상황을	-3358
▁스피어	-3359
▁제임스	-3360
▁지금의	-3361
들로부터	-3362
▁愼	-3363
▁꼽	-3364
격한	-3365
기간	-3366
사이	-3367
율이	-3368
책을	-3369
▁남한	-3370
▁높아	-3371
▁도전	-3372
▁머리	-3373
▁설계	-3374
▁원정	-3375
▁원주	-3376
▁처벌	-3377
▁청년	-3378
▁팀이	-3379
▁해방	-3380
기에서	-3381
▁감독은	-3382
▁계기로	-3383
▁라이브	-3384
▁멕시코	-3385
▁반대로	-3386
▁보이는	-3387
▁생활을	-3388
▁역으로	-3389
▁있음을	-3390
▁태어났다	-3391
▁몬	-3392
▁셰	-3393
각을	-3394
니의	-3395
식에	-3396
식의	-3397
었기	-3398
▁구간	-3399
▁그려	-3400
▁다니	-3401
▁성향	-3402
▁수학	-3403
▁외에	-3404
▁이며	-3405
▁인근	-3406
▁정리	-3407
▁최다	-3408
▁컴백	-3409
였는데	-3410
▁다음날	-3411
▁마리아	-3412
▁말았다	-3413
▁여기서	-3414
▁의견을	-3415
▁이르는	-3416
▁이용한	-3417
▁공식적으로	-3418
▁조선민주주의	-3419
▁大	-3420
▁넥	-3421
▁잇	-3422
관은	-3423
기록	-3424
법에	-3425
설이	-3426
시대	-3427
싱턴	-3428
점에	-3429
주로	-3430
트랙	-3431
프가	-3432
화로	-3433
화에	-3434
▁간주	-3435
▁그곳	-3436
▁대변	-3437
▁도망	-3438
▁돌파	-3439
▁때에	-3440
▁비틀	-3441
▁상륙	-3442
▁실현	-3443
▁아랍	-3444
▁언제	-3445
▁얻어	-3446
▁원로	-3447
▁유래	-3448
▁저서	-3449
▁주간	-3450
▁천황	-3451
▁폭력	-3452
▁프레	-3453
스럽게	-3454
▁기회를	-3455
▁이용하여	-3456
▁전투에서	-3457
▁세계적으로	-3458
▁쇠	-3459
골을	-3460
라늄	-3461
미가	-3462
스티	-3463
인트	-3464
조차	-3465
질이	-3466
처를	-3467
형이	-3468
▁개를	-3469
▁관객	-3470
▁매년	-3471
▁사퇴	-3472
▁스탈	-3473
▁신한	-3474
▁얼음	-3475
▁인용	-3476
▁재개	-3477
▁점점	-3478
▁지상	-3479
▁직원	-3480
▁브라운	-3481
▁비판을	-3482
▁세웠다	-3483
▁스타일	-3484
▁웨스트	-3485
▁이전의	-3486
▁주장이	-3487
전에서는	-3488
▁벽	-3489
▁숫	-3490
▁짐	-3491
▁흰	-3492
▁힙	-3493
리며	-3494
메라	-3495
사령	-3496
승을	-3497
어요	-3498
예술	-3499
요일	-3500
카이	-3501
토의	-3502
▁거듭	-3503
▁나이	-3504
▁높이	-3505
▁말에	-3506
▁브루	-3507
▁알로	-3508
▁완벽	-3509
▁요새	-3510
▁주고	-3511
▁즉시	-3512
▁징역	-3513
▁천만	-3514
▁출마	-3515
▁홍보	-3516
기까지	-3517
▁곳에서	-3518
▁등에서	-3519
▁차트에서	-3520
▁쳐	-3521
공업	-3522
안은	-3523
없는	-3524
우주	-3525
항을	-3526
▁게이	-3527
▁공공	-3528
▁공유	-3529
▁노선	-3530
▁방출	-3531
▁이날	-3532
▁학살	-3533
민주당	-3534
스와의	-3535
입니다	-3536
▁북한의	-3537
▁이끌고	-3538
▁전문가	-3539
▁전쟁을	-3540
▁필요가	-3541
▁자신들의	-3542
▁한나라당	-3543
▁이루어졌다	-3544
▁란	-3545
권은	-3546
권이	-3547
베이	-3548
서의	-3549
세가	-3550
안의	-3551
치게	-3552
친왕	-3553
▁끌어	-3554
▁무기	-3555
▁베르	-3556
▁소닉	-3557
▁압박	-3558
▁연습	-3559
▁인공	-3560
▁인기	-3561
▁일정	-3562
▁입고	-3563
▁항소	-3564
명으로	-3565
▁늑대가	-3566
▁로버트	-3567
▁모스크	-3568
▁못하는	-3569
▁차이가	-3570
▁출신의	-3571
▁홈런을	-3572
▁출연하였다	-3573
..	-3574
▁°	-3575
▁숭	-3576
▁쏘	-3577
구는	-3578
장인	-3579
주가	-3580
▁갔다	-3581
▁동생	-3582
▁동쪽	-3583
▁디자	-3584
▁많아	-3585
▁오프	-3586
▁이온	-3587
▁전사	-3588
▁체계	-3589
▁편집	-3590
▁폴링	-3591
▁학문	-3592
▁해체	-3593
▁화학	-3594
주의를	-3595
▁보았다	-3596
▁이들이	-3597
▁있었기	-3598
▁태평양	-3599
▁상대적으로	-3600
▁적극적으로	-3601
▁쾌	-3602
교를	-3603
라며	-3604
량은	-3605
령을	-3606
바로	-3607
수와	-3608
웨이	-3609
치지	-3610
크의	-3611
프의	-3612
▁끝내	-3613
▁발사	-3614
▁보급	-3615
▁소방	-3616
▁스코	-3617
▁신앙	-3618
▁의무	-3619
▁힘들	-3620
▁거대한	-3621
▁달러를	-3622
▁메이저	-3623
▁빠르게	-3624
▁사령관	-3625
▁워싱턴	-3626
▁일으키	-3627
▁자신은	-3628
되었지만	-3629
▁대해서도	-3630
▁케플러는	-3631
▁돕	-3632
▁쫓	-3633
국민	-3634
보고	-3635
지자	-3636
파가	-3637
▁끝난	-3638
▁단독	-3639
▁맞이	-3640
▁모아	-3641
▁사법	-3642
▁순간	-3643
▁어떠	-3644
▁요리	-3645
▁운전	-3646
▁원작	-3647
▁제정	-3648
▁중간	-3649
▁파리	-3650
▁표시	-3651
▁한일	-3652
▁행위	-3653
▁후쿠	-3654
▁힙합	-3655
도에서	-3656
자들과	-3657
▁감독의	-3658
▁동성애	-3659
▁성공을	-3660
▁이용해	-3661
▁주장하는	-3662
▁처음에는	-3663
률이	-3664
소와	-3665
종이	-3666
크로	-3667
▁가서	-3668
▁기소	-3669
▁남편	-3670
▁년과	-3671
▁대항	-3672
▁동영	-3673
▁만한	-3674
▁부진	-3675
▁불안	-3676
▁소년	-3677
▁악화	-3678
▁앞에	-3679
▁잡지	-3680
▁총독	-3681
▁투어	-3682
였지만	-3683
▁사건은	-3684
▁소식을	-3685
▁시대에	-3686
▁일어났	-3687
▁포르투	-3688
되었다고	-3689
하겠다는	-3690
▁네트워크	-3691
▁데이비드	-3692
▁생각했다	-3693
▁아카데미	-3694
▁있었다고	-3695
▁지금까지	-3696
▁뿌	-3697
▁얘	-3698
▁엑	-3699
▁털	-3700
개발	-3701
교회	-3702
받는	-3703
스토	-3704
에만	-3705
우리	-3706
지원	-3707
▁고문	-3708
▁공급	-3709
▁금융	-3710
▁독재	-3711
▁두려	-3712
▁명확	-3713
▁베네	-3714
▁브로	-3715
▁사진	-3716
▁실질	-3717
▁융합	-3718
▁일의	-3719
▁자극	-3720
▁조합	-3721
▁주둔	-3722
▁책을	-3723
▁철저	-3724
▁추천	-3725
▁타격	-3726
▁투수	-3727
▁투자	-3728
▁하계	-3729
▁하이	-3730
▁훌륭	-3731
단으로	-3732
올림픽	-3733
▁성과를	-3734
▁수밖에	-3735
▁연구를	-3736
▁이끄는	-3737
▁일본어	-3738
▁전쟁이	-3739
▁충분히	-3740
▁특별한	-3741
▁일반적인	-3742
로로	-3743
표를	-3744
활동	-3745
▁가속	-3746
▁가스	-3747
▁강원	-3748
▁공을	-3749
▁관중	-3750
▁근본	-3751
▁당초	-3752
▁독자	-3753
▁분열	-3754
▁분쟁	-3755
▁센터	-3756
▁오브	-3757
▁철학	-3758
▁플루	-3759
▁활발	-3760
시키기	-3761
전으로	-3762
▁선수가	-3763
▁시작한	-3764
▁아이돌	-3765
▁이들을	-3766
▁중에는	-3767
▁후에는	-3768
이었으며	-3769
▁아티스트	-3770
▁연기했다	-3771
▁일어났다	-3772
▁본격적으로	-3773
▁굳	-3774
▁됐	-3775
▁앉	-3776
▁팽	-3777
누리	-3778
되면	-3779
배우	-3780
시티	-3781
언을	-3782
즈를	-3783
치에	-3784
타를	-3785
포를	-3786
하나	-3787
하신	-3788
행에	-3789
▁그레	-3790
▁당사	-3791
▁들고	-3792
▁말이	-3793
▁맡은	-3794
▁미군	-3795
▁밝혔	-3796
▁아스	-3797
▁장을	-3798
▁탈락	-3799
▁팀을	-3800
▁하늘	-3801
▁항성	-3802
▁확산	-3803
에게서	-3804
적이다	-3805
▁경제적	-3806
▁내용이	-3807
▁명령을	-3808
▁발표한	-3809
▁부상을	-3810
▁오스만	-3811
▁조지아	-3812
▁활동전	-3813
▁국회의원	-3814
▁나타났다	-3815
▁이루어져	-3816
▁때문이었다	-3817
▁꺾	-3818
▁릴	-3819
▁빚	-3820
▁쓸	-3821
관계	-3822
구에	-3823
사키	-3824
시와	-3825
왔고	-3826
중앙	-3827
크는	-3828
패를	-3829
▁개편	-3830
▁고정	-3831
▁골든	-3832
▁근로	-3833
▁기병	-3834
▁대개	-3835
▁대형	-3836
▁리더	-3837
▁맞추	-3838
▁무너	-3839
▁뮤지	-3840
▁바르	-3841
▁북부	-3842
▁생긴	-3843
▁서버	-3844
▁서쪽	-3845
▁세운	-3846
▁수여	-3847
▁신설	-3848
▁없게	-3849
▁이닝	-3850
관으로	-3851
레이션	-3852
리스트	-3853
주의적	-3854
하지는	-3855
▁그것은	-3856
▁떨어진	-3857
▁미국과	-3858
▁변화를	-3859
▁어떠한	-3860
▁우리가	-3861
▁행동을	-3862
▁발매했다	-3863
관에	-3864
께서	-3865
냈고	-3866
니스	-3867
단한	-3868
라가	-3869
면을	-3870
비의	-3871
신은	-3872
즈가	-3873
트남	-3874
▁경계	-3875
▁단지	-3876
▁빌헬	-3877
▁수감	-3878
▁신분	-3879
▁심리	-3880
▁영원	-3881
▁전후	-3882
▁집권	-3883
▁출범	-3884
▁특이	-3885
▁파악	-3886
▁해에	-3887
라비아	-3888
틀랜드	-3889
하라는	-3890
▁교수는	-3891
▁국정원	-3892
▁군대를	-3893
▁베컴은	-3894
▁부르는	-3895
▁부분을	-3896
▁소비에	-3897
▁유대인	-3898
▁자이언	-3899
▁공산주의	-3900
▁만들어진	-3901
▁이후에는	-3902
▁돼	-3903
▁량	-3904
▁삭	-3905
▁짜	-3906
는지	-3907
리히	-3908
서로	-3909
호가	-3910
▁고위	-3911
▁기다	-3912
▁꾸준	-3913
▁뒤를	-3914
▁망명	-3915
▁발발	-3916
▁백성	-3917
▁법칙	-3918
▁비상	-3919
▁원내	-3920
▁의존	-3921
▁적절	-3922
▁제일	-3923
▁크로	-3924
▁탈퇴	-3925
▁히트	-3926
▁경우도	-3927
▁국가의	-3928
▁년에서	-3929
▁동일한	-3930
▁마무리	-3931
▁명나라	-3932
▁미국이	-3933
▁베이비	-3934
▁비교적	-3935
▁빌헬름	-3936
▁세계의	-3937
▁이른바	-3938
▁일부는	-3939
▁지역은	-3940
▁현재는	-3941
▁강조했다	-3942
▁대부분은	-3943
▁설명했다	-3944
니까	-3945
라나	-3946
렬한	-3947
본을	-3948
선과	-3949
선수	-3950
여서	-3951
치아	-3952
페이	-3953
항공	-3954
▁근육	-3955
▁도덕	-3956
▁되며	-3957
▁둘째	-3958
▁마디	-3959
▁법무	-3960
▁성과	-3961
▁승객	-3962
▁어드	-3963
▁익스	-3964
▁정복	-3965
▁제조	-3966
▁주년	-3967
▁철수	-3968
▁통신	-3969
되어야	-3970
되었을	-3971
자로서	-3972
▁발견된	-3973
▁사건의	-3974
▁원인이	-3975
▁음악을	-3976
▁일으킨	-3977
▁지하철	-3978
▁그리하여	-3979
▁김보름은	-3980
▁말하였다	-3981
▁유럽찌르레	-3982
▁랩	-3983
▁류	-3984
▁혁	-3985
관리	-3986
관의	-3987
그라	-3988
나마	-3989
능을	-3990
니어	-3991
린의	-3992
방을	-3993
앤젤	-3994
의가	-3995
제국	-3996
주고	-3997
티나	-3998
▁개막	-3999
▁경상	-4000
▁고향	-4001
▁구입	-4002
▁글로	-4003
▁기부	-4004
▁년을	-4005
▁도와	-4006
▁벤허	-4007
▁부담	-4008
▁빅토	-4009
▁세종	-4010
▁손을	-4011
▁아시	-4012
▁아침	-4013
▁오카	-4014
▁일로	-4015
▁장의	-4016
▁집행	-4017
▁촉구	-4018
▁표준	-4019
▁후퇴	-4020
군에게	-4021
졌는데	-4022
▁능력을	-4023
▁들어서	-4024
▁디자인	-4025
▁말하는	-4026
▁사용한	-4027
▁생각을	-4028
▁심지어	-4029
▁영화의	-4030
▁오사카	-4031
▁주한미	-4032
▁거두었다	-4033
▁금메달을	-4034
▁로스앤젤	-4035
▁모스크바	-4036
▁받았으며	-4037
▁방식으로	-4038
▁제외하고	-4039
▁선정되었다	-4040
▁값	-4041
가로	-4042
거운	-4043
대상	-4044
청년	-4045
판을	-4046
▁계급	-4047
▁교환	-4048
▁때의	-4049
▁랭킹	-4050
▁메시	-4051
▁싸우	-4052
▁에도	-4053
▁예비	-4054
▁일단	-4055
▁자동	-4056
▁펼쳐	-4057
운동을	-4058
▁다수의	-4059
▁데이터	-4060
▁새누리	-4061
▁수록곡	-4062
▁주장을	-4063
▁청소년	-4064
▁콘서트	-4065
▁형태의	-4066
▁가능성을	-4067
▁현재까지	-4068
계획	-4069
드에	-4070
연맹	-4071
조작	-4072
▁규칙	-4073
▁그럼	-4074
▁대공	-4075
▁대의	-4076
▁들이	-4077
▁블루	-4078
▁선박	-4079
▁소리	-4080
▁어디	-4081
▁올리	-4082
▁이재	-4083
▁이준	-4084
▁지니	-4085
▁천체	-4086
▁칠레	-4087
▁후계	-4088
하였던	-4089
▁가졌다	-4090
▁많았다	-4091
▁문제에	-4092
▁상황이	-4093
▁세력을	-4094
▁어린이	-4095
▁오디션	-4096
▁조성민	-4097
이었지만	-4098
하였다고	-4099
▁댓	-4100
▁캄	-4101
갔고	-4102
건을	-4103
공을	-4104
대전	-4105
러가	-4106
법의	-4107
보로	-4108
브먼	-4109
석이	-4110
영의	-4111
용은	-4112
해져	-4113
▁강남	-4114
▁건의	-4115
▁내에	-4116
▁넓은	-4117
▁넥센	-4118
▁느낌	-4119
▁돌려	-4120
▁동남	-4121
▁몽골	-4122
▁베를	-4123
▁비정	-4124
▁서서	-4125
▁스케	-4126
▁아름	-4127
▁얻은	-4128
▁원을	-4129
▁유치	-4130
▁정말	-4131
▁중의	-4132
▁출입	-4133
▁허위	-4134
사이트	-4135
었다는	-4136
인에게	-4137
정으로	-4138
지에는	-4139
하라고	-4140
▁교육을	-4141
▁다르게	-4142
▁만들고	-4143
▁시작된	-4144
▁온라인	-4145
▁이끌어	-4146
▁정보를	-4147
▁프리스	-4148
▁아메리카	-4149
▁서울대학교	-4150
▁린	-4151
▁붉	-4152
▁셀	-4153
▁셋	-4154
▁좁	-4155
남도	-4156
다시	-4157
당과	-4158
마는	-4159
만은	-4160
법이	-4161
보는	-4162
분이	-4163
뿐만	-4164
연히	-4165
우를	-4166
인도	-4167
형의	-4168
▁검사	-4169
▁다카	-4170
▁마사	-4171
▁말씀	-4172
▁몰아	-4173
▁바라	-4174
▁배출	-4175
▁백만	-4176
▁분에	-4177
▁승격	-4178
▁시카	-4179
▁아파	-4180
▁이행	-4181
▁전파	-4182
▁출장	-4183
▁황태	-4184
시스트	-4185
▁기능을	-4186
▁떨어져	-4187
▁라운드	-4188
▁변호사	-4189
▁우라늄	-4190
▁일본은	-4191
▁방법으로	-4192
▁→	-4193
▁까	-4194
▁멈	-4195
▁쥐	-4196
동이	-4197
마저	-4198
메달	-4199
메리	-4200
미디	-4201
아노	-4202
에선	-4203
유럽	-4204
재가	-4205
즈와	-4206
타는	-4207
티늄	-4208
해가	-4209
▁권력	-4210
▁궤도	-4211
▁단편	-4212
▁미야	-4213
▁바깥	-4214
▁빌리	-4215
▁세대	-4216
▁수집	-4217
▁신뢰	-4218
▁원더	-4219
▁은행	-4220
▁이익	-4221
▁일시	-4222
▁점이	-4223
▁주어	-4224
▁측정	-4225
▁흐름	-4226
리우스	-4227
였으나	-4228
▁게다가	-4229
▁경우는	-4230
▁권력을	-4231
▁김영삼	-4232
▁되는데	-4233
▁복잡한	-4234
▁스테고	-4235
▁얼마나	-4236
▁정부에	-4237
▁트리플	-4238
▁후보로	-4239
이었으나	-4240
▁사람들을	-4241
▁최진실은	-4242
▁발매되었다	-4243
▁꺼	-4244
▁띄	-4245
▁롱	-4246
▁왼	-4247
러진	-4248
류는	-4249
명한	-4250
씨가	-4251
영이	-4252
티아	-4253
▁가요	-4254
▁거짓	-4255
▁검은	-4256
▁계열	-4257
▁공통	-4258
▁더블	-4259
▁명에	-4260
▁실행	-4261
▁웨일	-4262
▁유도	-4263
▁이하	-4264
▁일자	-4265
▁전주	-4266
▁제이	-4267
▁중력	-4268
▁탄압	-4269
▁함락	-4270
▁확립	-4271
▁회사	-4272
▁흔히	-4273
만으로	-4274
베르크	-4275
한다면	-4276
▁문제는	-4277
▁벗어나	-4278
▁보이지	-4279
▁북한이	-4280
▁브라질	-4281
▁상태로	-4282
▁심각한	-4283
▁여성의	-4284
▁이상을	-4285
▁전까지	-4286
▁전했다	-4287
▁평론가	-4288
▁가능하다	-4289
▁계속해서	-4290
▁구성되어	-4291
▁참여했다	-4292
▁포르투갈	-4293
▁조선민주주의인민공화국	-4294
▁꽃	-4295
▁묶	-4296
▁삽	-4297
개의	-4298
마트	-4299
법은	-4300
분에	-4301
상태	-4302
시오	-4303
시험	-4304
아버	-4305
지인	-4306
▁가을	-4307
▁곳에	-4308
▁김기	-4309
▁내의	-4310
▁박보	-4311
▁방면	-4312
▁보낸	-4313
▁보존	-4314
▁압도	-4315
▁열어	-4316
▁예선	-4317
▁완료	-4318
▁위의	-4319
▁재직	-4320
▁정체	-4321
▁조절	-4322
▁차단	-4323
▁참전	-4324
▁편의	-4325
면서도	-4326
부터는	-4327
실에서	-4328
▁관계가	-4329
▁그것이	-4330
▁나아가	-4331
▁들었다	-4332
▁받으며	-4333
▁사회의	-4334
▁있어야	-4335
▁터브먼	-4336
▁관련하여	-4337
▁프로젝트	-4338
▁뜨	-4339
▁샘	-4340
▁춘	-4341
고래	-4342
나와	-4343
다면	-4344
듯이	-4345
라면	-4346
률을	-4347
엽충	-4348
인가	-4349
투쟁	-4350
튜브	-4351
트너	-4352
협회	-4353
▁가상	-4354
▁결의	-4355
▁고래	-4356
▁나뉘	-4357
▁내각	-4358
▁내내	-4359
▁대법	-4360
▁댓글	-4361
▁멀리	-4362
▁사과	-4363
▁선전	-4364
▁세드	-4365
▁안보	-4366
▁에스	-4367
▁연출	-4368
▁예로	-4369
▁오랫	-4370
▁오직	-4371
▁잠수	-4372
▁중인	-4373
▁파크	-4374
▁한때	-4375
▁회전	-4376
▁흑인	-4377
관계를	-4378
았으나	-4379
하기에	-4380
▁갑자기	-4381
▁경향이	-4382
▁기록은	-4383
▁마음을	-4384
▁베트남	-4385
▁부른다	-4386
▁사용할	-4387
▁삼엽충	-4388
▁상황에	-4389
▁선수로	-4390
▁유전자	-4391
▁의미를	-4392
▁이어서	-4393
▁종류의	-4394
▁하나는	-4395
▁건륭제는	-4396
▁등장하는	-4397
▁쇼트트랙	-4398
▁링	-4399
▁택	-4400
▁휩	-4401
고는	-4402
교도	-4403
구로	-4404
물로	-4405
물은	-4406
배를	-4407
본부	-4408
함과	-4409
화와	-4410
회견	-4411
▁고등	-4412
▁공기	-4413
▁공포	-4414
▁관여	-4415
▁긴급	-4416
▁달려	-4417
▁브리	-4418
▁빼앗	-4419
▁새벽	-4420
▁소위	-4421
▁스크	-4422
▁인조	-4423
▁일제	-4424
▁장교	-4425
▁주류	-4426
▁찰스	-4427
▁태풍	-4428
▁트럼	-4429
▁합격	-4430
역으로	-4431
▁로마의	-4432
▁브랜드	-4433
▁선수권	-4434
▁시카고	-4435
▁아무런	-4436
▁없으며	-4437
▁이르러	-4438
▁그럼에도	-4439
▁당시에는	-4440
▁받아들이	-4441
▁시작했고	-4442
▁오랫동안	-4443
▁자리에서	-4444
▁해당하는	-4445
개혁	-4446
비로	-4447
세이	-4448
시로	-4449
실의	-4450
아서	-4451
조선	-4452
파는	-4453
히는	-4454
▁갖게	-4455
▁결론	-4456
▁광범	-4457
▁극복	-4458
▁급진	-4459
▁길을	-4460
▁당한	-4461
▁대답	-4462
▁댄스	-4463
▁리처	-4464
▁매니	-4465
▁뱅크	-4466
▁비욘	-4467
▁상위	-4468
▁서부	-4469
▁선포	-4470
▁소수	-4471
▁오토	-4472
▁일은	-4473
▁전설	-4474
▁주기	-4475
▁주제	-4476
▁중립	-4477
▁직전	-4478
▁집에	-4479
▁체질	-4480
▁침략	-4481
▁킬로	-4482
▁탐사	-4483
▁토르	-4484
▁항복	-4485
드에서	-4486
였다고	-4487
하기를	-4488
▁각각의	-4489
▁그들을	-4490
▁미국에	-4491
▁서비스	-4492
▁앨범은	-4493
▁했다고	-4494
▁나타나는	-4495
▁시작한다	-4496
▁일어나는	-4497
▁자이언츠	-4498
▁포함되어	-4499
▁프로듀서	-4500
▁섹	-4501
▁쏟	-4502
결승	-4503
니가	-4504
라노	-4505
문은	-4506
영을	-4507
오프	-4508
이란	-4509
자금	-4510
크라	-4511
트라	-4512
▁감사	-4513
▁군인	-4514
▁농업	-4515
▁대다	-4516
▁루이	-4517
▁방사	-4518
▁북미	-4519
▁서인	-4520
▁암컷	-4521
▁의화	-4522
▁정통	-4523
▁지어	-4524
▁창설	-4525
▁타마	-4526
▁패러	-4527
▁해명	-4528
▁해산	-4529
▁현상	-4530
▁호텔	-4531
▁후속	-4532
국으로	-4533
▁구조를	-4534
▁그녀가	-4535
▁모습이	-4536
▁없었고	-4537
▁이론을	-4538
▁이집트	-4539
▁자체가	-4540
▁호평을	-4541
하면서도	-4542
▁못하였다	-4543
▁방향으로	-4544
▁상태에서	-4545
▁지적했다	-4546
▁지속적으로	-4547
▁똑	-4548
▁래	-4549
계약	-4550
교의	-4551
망을	-4552
벤처	-4553
병을	-4554
브리	-4555
씨는	-4556
플로	-4557
형은	-4558
▁개가	-4559
▁개통	-4560
▁답변	-4561
▁도움	-4562
▁명은	-4563
▁모여	-4564
▁무리	-4565
▁반환	-4566
▁분포	-4567
▁수송	-4568
▁쓰는	-4569
▁약간	-4570
▁이정	-4571
▁전형	-4572
▁접촉	-4573
▁제품	-4574
▁중세	-4575
▁출생	-4576
▁테러	-4577
▁풍부	-4578
된다는	-4579
식으로	-4580
우스의	-4581
▁강하게	-4582
▁경기가	-4583
▁경기는	-4584
▁교회의	-4585
▁권한을	-4586
▁그레이	-4587
▁김정은	-4588
▁목표로	-4589
▁아들이	-4590
▁없었던	-4591
▁이후의	-4592
▁카이사	-4593
학자들은	-4594
▁기자회견	-4595
▁베이비복	-4596
▁부정적인	-4597
▁비롯하여	-4598
▁사건으로	-4599
▁사람들의	-4600
▁임시정부	-4601
▁발견되었다	-4602
▁낸	-4603
▁듀	-4604
▁든	-4605
▁믹	-4606
고로	-4607
공사	-4608
급을	-4609
머스	-4610
씨를	-4611
일의	-4612
▁강요	-4613
▁개국	-4614
▁군주	-4615
▁네이	-4616
▁다스	-4617
▁단식	-4618
▁라인	-4619
▁막기	-4620
▁모리	-4621
▁목숨	-4622
▁복지	-4623
▁부근	-4624
▁부동	-4625
▁성인	-4626
▁성적	-4627
▁수익	-4628
▁승낙	-4629
▁시설	-4630
▁않게	-4631
▁야당	-4632
▁연평	-4633
▁요소	-4634
▁조용	-4635
▁지목	-4636
▁필라	-4637
▁하자	-4638
▁학술	-4639
속도로	-4640
용으로	-4641
▁가까이	-4642
▁경찰은	-4643
▁나온다	-4644
▁부분이	-4645
▁세기의	-4646
▁유사한	-4647
▁필리핀	-4648
▁활약을	-4649
▁히어로	-4650
▁들어갔다	-4651
▁비판했다	-4652
▁사람들에게	-4653
▁헝	-4654
▁힐	-4655
감이	-4656
고가	-4657
구와	-4658
권과	-4659
냐는	-4660
든지	-4661
들어	-4662
마를	-4663
목을	-4664
세포	-4665
시한	-4666
어버	-4667
통합	-4668
프레	-4669
해도	-4670
회와	-4671
▁관광	-4672
▁그만	-4673
▁데에	-4674
▁드래	-4675
▁레닌	-4676
▁만난	-4677
▁만족	-4678
▁선임	-4679
▁세를	-4680
▁소화	-4681
▁응답	-4682
▁저녁	-4683
▁전부	-4684
▁진술	-4685
▁클리	-4686
▁포는	-4687
▁하에	-4688
▁해리	-4689
▁황금	-4690
이라며	-4691
▁것이고	-4692
▁그레고	-4693
▁노동자	-4694
▁대상이	-4695
▁또다른	-4696
▁말하며	-4697
▁발언을	-4698
▁보위는	-4699
▁스위스	-4700
▁알렉산	-4701
▁정확한	-4702
▁조치를	-4703
으로서의	-4704
▁구체적인	-4705
▁조선인민	-4706
▁李	-4707
▁묵	-4708
▁빙	-4709
▁섞	-4710
경에	-4711
경의	-4712
광역	-4713
기업	-4714
세에	-4715
시민	-4716
파를	-4717
▁가담	-4718
▁거둔	-4719
▁경성	-4720
▁공부	-4721
▁다수	-4722
▁당일	-4723
▁대대	-4724
▁모르	-4725
▁발휘	-4726
▁보편	-4727
▁본선	-4728
▁싸움	-4729
▁암호	-4730
▁엔진	-4731
▁외부	-4732
▁정지	-4733
▁처형	-4734
▁총리	-4735
▁클래	-4736
▁훼손	-4737
메리칸	-4738
았는데	-4739
▁내용은	-4740
▁라틴어	-4741
▁먹이를	-4742
▁바람에	-4743
▁비판이	-4744
▁않았던	-4745
▁외국인	-4746
▁작품은	-4747
▁준결승	-4748
▁코미디	-4749
▁태어나	-4750
▁평했다	-4751
▁하기도	-4752
▁그러므로	-4753
▁반대하는	-4754
▁이어졌다	-4755
▁존재하는	-4756
▁사용되었다	-4757
▁뱀	-4758
▁킹	-4759
▁톤	-4760
결을	-4761
관과	-4762
대신	-4763
대원	-4764
되게	-4765
디아	-4766
밀한	-4767
생의	-4768
왕을	-4769
청을	-4770
체에	-4771
타르	-4772
▁갈라	-4773
▁갖는	-4774
▁길이	-4775
▁김성	-4776
▁넘겨	-4777
▁노출	-4778
▁놀라	-4779
▁농민	-4780
▁도르	-4781
▁등판	-4782
▁마쓰	-4783
▁마친	-4784
▁밀려	-4785
▁박사	-4786
▁반박	-4787
▁방지	-4788
▁부임	-4789
▁분의	-4790
▁세금	-4791
▁소장	-4792
▁수십	-4793
▁아덴	-4794
▁위키	-4795
▁이중	-4796
▁적응	-4797
▁절반	-4798
▁좌익	-4799
▁직업	-4800
▁플로	-4801
▁효율	-4802
기에는	-4803
렸으며	-4804
▁권리를	-4805
▁남겼다	-4806
▁달러의	-4807
▁마치고	-4808
▁안에서	-4809
▁의견이	-4810
▁의사를	-4811
▁이처럼	-4812
▁덧붙였다	-4813
▁생각한다	-4814
▁횡	-4815
여자	-4816
왕의	-4817
우가	-4818
조와	-4819
▁감옥	-4820
▁구미	-4821
▁구역	-4822
▁그로	-4823
▁나왔	-4824
▁눈에	-4825
▁독특	-4826
▁득표	-4827
▁메인	-4828
▁무료	-4829
▁미리	-4830
▁상을	-4831
▁생애	-4832
▁수백	-4833
▁시사	-4834
▁시상	-4835
▁아동	-4836
▁앨런	-4837
▁유기	-4838
▁장이	-4839
▁진실	-4840
▁크레	-4841
▁타점	-4842
▁한정	-4843
▁합동	-4844
▁호주	-4845
구에서	-4846
았지만	-4847
▁규모의	-4848
▁꾸준히	-4849
▁사람들	-4850
▁새롭게	-4851
▁세인트	-4852
▁솔라나	-4853
▁않으며	-4854
▁전쟁의	-4855
▁펼쳤다	-4856
에서부터	-4857
▁소비에트	-4858
▁이외에도	-4859
▁람	-4860
▁숲	-4861
바다	-4862
발전	-4863
색을	-4864
세는	-4865
수에	-4866
줬다	-4867
쪽에	-4868
층의	-4869
티즌	-4870
호와	-4871
▁가설	-4872
▁경고	-4873
▁공항	-4874
▁기갑	-4875
▁김정	-4876
▁노벨	-4877
▁다소	-4878
▁담은	-4879
▁대북	-4880
▁비중	-4881
▁연락	-4882
▁유출	-4883
▁음력	-4884
▁일치	-4885
▁작동	-4886
▁탑재	-4887
▁가가는	-4888
▁관심이	-4889
▁년만에	-4890
▁받는다	-4891
▁베를린	-4892
▁변화가	-4893
▁소속사	-4894
▁스마트	-4895
▁앨범의	-4896
▁위치를	-4897
▁유튜브	-4898
▁정권을	-4899
▁조사를	-4900
▁충분한	-4901
▁피해자	-4902
되었다는	-4903
▁기록으로	-4904
▁되었는데	-4905
▁스카이라	-4906
▁아메리칸	-4907
▁인기가요	-4908
▁꾀	-4909
▁멘	-4910
▁싫	-4911
▁탁	-4912
계는	-4913
만한	-4914
부장	-4915
양이	-4916
우의	-4917
은행	-4918
▁과도	-4919
▁남겨	-4920
▁니콜	-4921
▁대사	-4922
▁드레	-4923
▁때도	-4924
▁법적	-4925
▁병원	-4926
▁부탁	-4927
▁붉은	-4928
▁서명	-4929
▁소비	-4930
▁수를	-4931
▁여섯	-4932
▁영상	-4933
▁이내	-4934
▁인상	-4935
▁일방	-4936
▁입은	-4937
▁자녀	-4938
▁장군	-4939
▁재위	-4940
▁재학	-4941
▁저는	-4942
▁전인	-4943
▁지향	-4944
▁청구	-4945
▁추구	-4946
▁침몰	-4947
▁트위	-4948
▁허락	-4949
▁협의	-4950
▁후인	-4951
▁흥행	-4952
리아의	-4953
▁결정을	-4954
▁내용의	-4955
▁돌아오	-4956
▁또다시	-4957
▁사랑을	-4958
▁시티즈	-4959
▁아덴하	-4960
▁역사적	-4961
▁의원이	-4962
▁제도를	-4963
▁출연한	-4964
▁형태를	-4965
▁강희제의	-4966
▁기반으로	-4967
▁박근혜는	-4968
▁받았다고	-4969
▁선보였다	-4970
▁않았지만	-4971
▁어드벤처	-4972
▁이르렀다	-4973
▁주장한다	-4974
▁큰까마귀	-4975
▁라부아지에는	-4976
▁뚜	-4977
▁흉	-4978
고자	-4979
내기	-4980
내며	-4981
다란	-4982
동생	-4983
로마	-4984
우드	-4985
유를	-4986
율은	-4987
▁가치	-4988
▁감각	-4989
▁거리	-4990
▁구별	-4991
▁급격	-4992
▁되돌	-4993
▁목적	-4994
▁못해	-4995
▁무죄	-4996
▁사전	-4997
▁소요	-4998
▁수석	-4999
▁연관	-5000
▁오버	-5001
▁위성	-5002
▁일찍	-5003
▁주지	-5004
▁질량	-5005
▁클라	-5006
▁통상	-5007
▁허리	-5008
▁현금	-5009
▁혼자	-5010
보다도	-5011
활동을	-5012
▁광범위	-5013
▁그동안	-5014
▁기록이	-5015
▁나타난	-5016
▁상태가	-5017
▁세상을	-5018
▁열었다	-5019
▁이상이	-5020
▁지도자	-5021
▁질문에	-5022
▁카메라	-5023
▁나타난다	-5024
▁이후에도	-5025
▁스코틀랜드	-5026
▁비트겐슈타인은	-5027
▁촛	-5028
경기	-5029
곡을	-5030
나쓰	-5031
대회	-5032
동물	-5033
메이	-5034
북도	-5035
산화	-5036
세계	-5037
세의	-5038
양을	-5039
인인	-5040
트륨	-5041
프리	-5042
하를	-5043
회담	-5044
▁관료	-5045
▁구원	-5046
▁데려	-5047
▁되기	-5048
▁뒤로	-5049
▁들은	-5050
▁말해	-5051
▁발렌	-5052
▁순치	-5053
▁시달	-5054
▁역임	-5055
▁왕의	-5056
▁외계	-5057
▁우루	-5058
▁유권	-5059
▁유태	-5060
▁일베	-5061
▁자치	-5062
▁장르	-5063
▁제가	-5064
▁집을	-5065
▁집정	-5066
▁칭찬	-5067
▁토마	-5068
▁통산	-5069
▁트랜	-5070
▁팔아	-5071
▁폭탄	-5072
▁프란	-5073
▁프랜	-5074
▁헝가	-5075
리스토	-5076
주의자	-5077
▁계기가	-5078
▁국무총	-5079
▁기술을	-5080
▁단순한	-5081
▁달하는	-5082
▁벨기에	-5083
▁불만을	-5084
▁세계를	-5085
▁앨범을	-5086
▁연기를	-5087
▁유럽의	-5088
▁있으면	-5089
▁주목을	-5090
▁카스트	-5091
▁태양의	-5092
▁페리는	-5093
▁본격적인	-5094
▁서울특별	-5095
▁승부조작	-5096
▁겹	-5097
▁델	-5098
같이	-5099
개를	-5100
길준	-5101
라를	-5102
레오	-5103
례를	-5104
린이	-5105
마가	-5106
스피	-5107
연한	-5108
이너	-5109
장한	-5110
재로	-5111
타의	-5112
훈련	-5113
▁나쁜	-5114
▁다룬	-5115
▁도모	-5116
▁디스	-5117
▁멸망	-5118
▁모임	-5119
▁무게	-5120
▁발탁	-5121
▁분할	-5122
▁붙여	-5123
▁비공	-5124
▁싶어	-5125
▁얻을	-5126
▁연세	-5127
▁였다	-5128
▁유행	-5129
▁이나	-5130
▁인지	-5131
▁장착	-5132
▁적도	-5133
▁전원	-5134
▁촛불	-5135
▁폐기	-5136
▁합쳐	-5137
▁현지	-5138
▁협상	-5139
▁형사	-5140
▁흡수	-5141
식에서	-5142
▁그랜드	-5143
▁논란을	-5144
▁돌아와	-5145
▁선교사	-5146
▁소련의	-5147
▁소프트	-5148
▁시즌에	-5149
▁아니고	-5150
▁아르헨	-5151
▁아이폰	-5152
▁에나쓰	-5153
▁오카자	-5154
▁지구의	-5155
▁페이스	-5156
▁필라델	-5157
▁김대중은	-5158
▁드러났다	-5159
▁오늘날의	-5160
▁청나라의	-5161
▁발매하였다	-5162
▁걷	-5163
▁꼭	-5164
바르	-5165
석은	-5166
슨이	-5167
식과	-5168
열을	-5169
이게	-5170
이와	-5171
종을	-5172
측은	-5173
카와	-5174
호의	-5175
화한	-5176
▁가슴	-5177
▁고소	-5178
▁곡의	-5179
▁공중	-5180
▁교사	-5181
▁난민	-5182
▁대화	-5183
▁도발	-5184
▁동시	-5185
▁뒤인	-5186
▁마일	-5187
▁만원	-5188
▁면서	-5189
▁밝힌	-5190
▁봉기	-5191
▁상품	-5192
▁선호	-5193
▁성격	-5194
▁시내	-5195
▁연간	-5196
▁연안	-5197
▁오바	-5198
▁유력	-5199
▁일상	-5200
▁자세	-5201
▁자전	-5202
▁저작	-5203
▁전화	-5204
▁제어	-5205
▁학과	-5206
되는데	-5207
▁관련해	-5208
▁나라의	-5209
▁도르곤	-5210
▁벌어진	-5211
▁사망한	-5212
▁사업을	-5213
▁연구가	-5214
▁완전한	-5215
▁유길준	-5216
▁음반은	-5217
▁하여금	-5218
▁효과를	-5219
▁돌아갔다	-5220
▁러시아의	-5221
▁아버지가	-5222
▁이미지를	-5223
▁익스플로	-5224
▁하나님의	-5225
▁성공적으로	-5226
▁걱	-5227
▁덜	-5228
▁딜	-5229
▁맛	-5230
▁햄	-5231
경이	-5232
국과	-5233
국제	-5234
급의	-5235
놓고	-5236
니티	-5237
대책	-5238
론이	-5239
문학	-5240
실로	-5241
의에	-5242
재는	-5243
철도	-5244
체와	-5245
쿠스	-5246
터리	-5247
▁공사	-5248
▁구매	-5249
▁군대	-5250
▁덴마	-5251
▁몸을	-5252
▁무한	-5253
▁보아	-5254
▁보인	-5255
▁상관	-5256
▁수컷	-5257
▁신군	-5258
▁심판	-5259
▁아사	-5260
▁원자	-5261
▁재단	-5262
▁전력	-5263
▁정기	-5264
▁주연	-5265
▁주최	-5266
▁중부	-5267
▁중성	-5268
▁추방	-5269
▁크누	-5270
▁하느	-5271
▁하던	-5272
▁학습	-5273
▁합리	-5274
▁해양	-5275
했었다	-5276
▁늑대의	-5277
▁대표팀	-5278
▁소녀시	-5279
▁우루과	-5280
▁원더걸	-5281
▁이승만	-5282
▁작품을	-5283
▁전쟁에	-5284
▁정부를	-5285
▁조선의	-5286
▁지니고	-5287
▁하나인	-5288
▁했다는	-5289
▁분야에서	-5290
▁사용하여	-5291
▁선수들이	-5292
▁영향력을	-5293
▁요구하는	-5294
▁유일하게	-5295
▁중화인민공화국	-5296
▁×	-5297
▁갱	-5298
▁뼈	-5299
▁푼	-5300
▁핑	-5301
▁흩	-5302
경은	-5303
구리	-5304
네스	-5305
모리	-5306
버스	-5307
서실	-5308
셔널	-5309
심한	-5310
액을	-5311
용이	-5312
있던	-5313
▁강의	-5314
▁걸친	-5315
▁검증	-5316
▁공룡	-5317
▁그냥	-5318
▁느꼈	-5319
▁대폭	-5320
▁맞춰	-5321
▁멜로	-5322
▁무산	-5323
▁물고	-5324
▁불렀	-5325
▁비극	-5326
▁시인	-5327
▁쏟아	-5328
▁옷을	-5329
▁이틀	-5330
▁저술	-5331
▁적합	-5332
▁초청	-5333
▁출간	-5334
▁취득	-5335
▁치명	-5336
▁커버	-5337
▁크다	-5338
▁포로	-5339
▁표기	-5340
▁프라	-5341
▁프랭	-5342
▁항쟁	-5343
▁협박	-5344
관에서	-5345
당하고	-5346
▁검찰은	-5347
▁그녀를	-5348
▁노력을	-5349
▁다르다	-5350
▁발전을	-5351
▁방법은	-5352
▁별다른	-5353
▁부분은	-5354
▁살아남	-5355
▁소리를	-5356
▁스토리	-5357
▁악티늄	-5358
▁오리콘	-5359
▁원하는	-5360
▁이었다	-5361
▁일본에	-5362
▁자리에	-5363
▁죽음을	-5364
▁쪽으로	-5365
▁추가로	-5366
▁태어난	-5367
▁판결을	-5368
화되었다	-5369
▁모습으로	-5370
▁아니었다	-5371
▁않았으며	-5372
▁일으켰다	-5373
▁자신에게	-5374
▁전통적인	-5375
▁북아메리카	-5376
▁포켓몬스터	-5377
▁필라델피아	-5378
▁앵	-5379
▁잊	-5380
구조	-5381
그리	-5382
기구	-5383
동맹	-5384
미의	-5385
복지	-5386
역이	-5387
유는	-5388
족을	-5389
토늄	-5390
통신	-5391
향을	-5392
▁가격	-5393
▁가경	-5394
▁고발	-5395
▁고조	-5396
▁공수	-5397
▁뉴스	-5398
▁다케	-5399
▁도루	-5400
▁따로	-5401
▁리듬	-5402
▁밀양	-5403
▁배제	-5404
▁복무	-5405
▁복원	-5406
▁삶을	-5407
▁서비	-5408
▁성폭	-5409
▁수요	-5410
▁신라	-5411
▁신사	-5412
▁아나	-5413
▁왕조	-5414
▁외무	-5415
▁외야	-5416
▁이스	-5417
▁일간	-5418
▁입단	-5419
▁입증	-5420
▁주전	-5421
▁착수	-5422
▁창립	-5423
▁침공	-5424
▁크라	-5425
▁포크	-5426
▁피터	-5427
니메데	-5428
선으로	-5429
시킨다	-5430
▁관련이	-5431
▁끝나고	-5432
▁돌아온	-5433
▁되기도	-5434
▁벌였다	-5435
▁사건에	-5436
▁세력이	-5437
▁식으로	-5438
▁에너지	-5439
▁에서도	-5440
▁음반의	-5441
▁이론은	-5442
▁중학교	-5443
▁출전한	-5444
▁커다란	-5445
▁토론토	-5446
▁후보가	-5447
▁대부분이	-5448
▁사용하고	-5449
▁시작하여	-5450
▁않았다고	-5451
▁챔피언스	-5452
▁참여하였다	-5453
▁닫	-5454
▁떼	-5455
▁띠	-5456
▁첨	-5457
계열	-5458
나게	-5459
르만	-5460
리언	-5461
마의	-5462
문제	-5463
방에	-5464
씨의	-5465
으려	-5466
인사	-5467
일본	-5468
접한	-5469
족이	-5470
지면	-5471
치며	-5472
▁관해	-5473
▁교각	-5474
▁권고	-5475
▁기후	-5476
▁누군	-5477
▁느낀	-5478
▁대로	-5479
▁마오	-5480
▁말한	-5481
▁매일	-5482
▁멈추	-5483
▁명과	-5484
▁미술	-5485
▁바그	-5486
▁부적	-5487
▁빨리	-5488
▁사로	-5489
▁신호	-5490
▁억원	-5491
▁음원	-5492
▁이성	-5493
▁이효	-5494
▁좋지	-5495
▁주관	-5496
▁진격	-5497
▁폭주	-5498
▁활성	-5499
시켰고	-5500
아니아	-5501
치면서	-5502
▁감독이	-5503
▁강원도	-5504
▁과학적	-5505
▁네티즌	-5506
▁단순히	-5507
▁레코드	-5508
▁말하고	-5509
▁매니저	-5510
▁뮤지컬	-5511
▁부분에	-5512
▁상태에	-5513
▁새정치	-5514
▁서울시	-5515
▁않도록	-5516
▁올라가	-5517
▁일본이	-5518
▁장면을	-5519
▁전부터	-5520
▁정도가	-5521
▁황제의	-5522
▁가니메데	-5523
▁나카모리	-5524
▁대통령을	-5525
▁않는다는	-5526
▁영국에서	-5527
▁의미한다	-5528
▁차지하는	-5529
▁플루토늄	-5530
▁보여주었다	-5531
▁수상하였다	-5532
▁어워드에서	-5533
▁제기되었다	-5534
▁로스앤젤레스	-5535
▁엔터테인먼트	-5536
▁굉	-5537
▁밥	-5538
▁캔	-5539
▁퀸	-5540
▁톰	-5541
방의	-5542
별로	-5543
스러	-5544
실에	-5545
약한	-5546
오카	-5547
재판	-5548
트릭	-5549
퍼드	-5550
프와	-5551
하와	-5552
▁가게	-5553
▁간에	-5554
▁대량	-5555
▁들면	-5556
▁떠올	-5557
▁명명	-5558
▁보상	-5559
▁살고	-5560
▁생기	-5561
▁소득	-5562
▁시의	-5563
▁싶은	-5564
▁쓰고	-5565
▁얻게	-5566
▁영구	-5567
▁이웃	-5568
▁자발	-5569
▁참모	-5570
▁초래	-5571
▁토지	-5572
▁평양	-5573
▁혁신	-5574
▁호남	-5575
▁회담	-5576
▁후기	-5577
▁후원	-5578
목으로	-5579
원들이	-5580
정에서	-5581
▁군사적	-5582
▁근거로	-5583
▁나섰다	-5584
▁나트륨	-5585
▁마르크	-5586
▁못했고	-5587
▁받기도	-5588
▁연구에	-5589
▁영감을	-5590
▁위대한	-5591
▁잘못된	-5592
▁정권의	-5593
▁중국어	-5594
▁트위터	-5595
▁하느님	-5596
▁독립운동	-5597
▁자본주의	-5598
▁중화민국	-5599
▁필요하다	-5600
▁쟁	-5601
▁텍	-5602
가에	-5603
단히	-5604
드니	-5605
드라	-5606
러를	-5607
론의	-5608
물에	-5609
법인	-5610
성도	-5611
심이	-5612
안전	-5613
인권	-5614
정과	-5615
졌던	-5616
직에	-5617
진과	-5618
침을	-5619
함이	-5620
형에	-5621
▁갈릴	-5622
▁갖춘	-5623
▁격파	-5624
▁결코	-5625
▁고도	-5626
▁곡은	-5627
▁군단	-5628
▁그들	-5629
▁끌려	-5630
▁납치	-5631
▁뚜렷	-5632
▁몰래	-5633
▁못할	-5634
▁무슨	-5635
▁물려	-5636
▁받기	-5637
▁방위	-5638
▁벗어	-5639
▁보조	-5640
▁양의	-5641
▁연말	-5642
▁와이	-5643
▁지낸	-5644
▁지리	-5645
▁지불	-5646
▁추모	-5647
▁토끼	-5648
▁한양	-5649
▁후임	-5650
▁흔들	-5651
▁히데	-5652
된다고	-5653
아시아	-5654
에게도	-5655
연구소	-5656
▁개혁을	-5657
▁결과가	-5658
▁경찰에	-5659
▁곧바로	-5660
▁당시에	-5661
▁때마다	-5662
▁로스쿨	-5663
▁마드리	-5664
▁목숨을	-5665
▁무대에	-5666
▁음반을	-5667
▁일어날	-5668
▁제목의	-5669
▁지나지	-5670
▁지역이	-5671
▁지위를	-5672
▁특별히	-5673
▁편지를	-5674
▁포함해	-5675
▁폴링은	-5676
▁프랑크	-5677
▁피아노	-5678
▁대표하는	-5679
▁전쟁에서	-5680
▁정식으로	-5681
▁플레이어	-5682
▁진행되었다	-5683
▁l	-5684
▁램	-5685
▁엽	-5686
▁즈	-5687
▁톱	-5688
고한	-5689
교통	-5690
누스	-5691
다니	-5692
미널	-5693
보험	-5694
슬림	-5695
왔던	-5696
재단	-5697
전과	-5698
티노	-5699
환을	-5700
▁겨우	-5701
▁고민	-5702
▁김경	-5703
▁내보	-5704
▁냈다	-5705
▁대책	-5706
▁동기	-5707
▁드물	-5708
▁맞서	-5709
▁명백	-5710
▁문서	-5711
▁발간	-5712
▁본다	-5713
▁살인	-5714
▁세에	-5715
▁습격	-5716
▁아가	-5717
▁아인	-5718
▁안내	-5719
▁와의	-5720
▁유죄	-5721
▁점은	-5722
▁첫째	-5723
▁축소	-5724
▁코스	-5725
▁평을	-5726
▁폐쇄	-5727
▁향상	-5728
았다고	-5729
우주연	-5730
이라도	-5731
제에서	-5732
▁개념을	-5733
▁관계는	-5734
▁남한산	-5735
▁독특한	-5736
▁들어오	-5737
▁디비전	-5738
▁떠났다	-5739
▁미디어	-5740
▁반란을	-5741
▁방식을	-5742
▁뿐이다	-5743
▁성격을	-5744
▁아들인	-5745
▁안철수	-5746
▁올스타	-5747
▁위원회	-5748
▁화이트	-5749
▁후보에	-5750
▁훌륭한	-5751
▁대통령과	-5752
▁요구했다	-5753
▁작품으로	-5754
▁플레이오프	-5755
▁대한민국에서	-5756
▁렌	-5757
더스	-5758
데이	-5759
병원	-5760
소리	-5761
수사	-5762
슨의	-5763
일리	-5764
장애	-5765
주에	-5766
중심	-5767
체육	-5768
크를	-5769
키가	-5770
턴은	-5771
▁감시	-5772
▁거친	-5773
▁걸려	-5774
▁골드	-5775
▁군은	-5776
▁권리	-5777
▁그날	-5778
▁나의	-5779
▁내륙	-5780
▁당의	-5781
▁대리	-5782
▁만다	-5783
▁맞게	-5784
▁베어	-5785
▁본토	-5786
▁부서	-5787
▁블록	-5788
▁사임	-5789
▁상실	-5790
▁상하	-5791
▁수의	-5792
▁시트	-5793
▁실망	-5794
▁양자	-5795
▁연애	-5796
▁의식	-5797
▁입법	-5798
▁장례	-5799
▁재생	-5800
▁전태	-5801
▁준다	-5802
▁중순	-5803
▁집회	-5804
▁채용	-5805
▁청약	-5806
▁카이	-5807
▁쿠데	-5808
▁크고	-5809
▁퍼져	-5810
▁플래	-5811
▁호흡	-5812
▁회장	-5813
▁후손	-5814
까지도	-5815
되거나	-5816
이었고	-5817
인들을	-5818
졌지만	-5819
지기도	-5820
하므로	-5821
▁경험이	-5822
▁과거의	-5823
▁나누어	-5824
▁나라를	-5825
▁능력이	-5826
▁대표로	-5827
▁독립을	-5828
▁된다는	-5829
▁들어와	-5830
▁만든다	-5831
▁무슬림	-5832
▁불린다	-5833
▁사실은	-5834
▁상하이	-5835
▁오래된	-5836
▁오른쪽	-5837
▁운동의	-5838
▁일부를	-5839
▁자유를	-5840
▁적어도	-5841
▁죽었다	-5842
▁천주교	-5843
▁케이블	-5844
▁포스트	-5845
▁확실히	-5846
▁후에도	-5847
이었는데	-5848
▁발생하는	-5849
▁빅토리아	-5850
▁아버지는	-5851
▁프리스틀	-5852
▁하나이다	-5853
▁결과적으로	-5854
▁익스플로러	-5855
▁프로그램을	-5856
▁옥타비아누스는	-5857
▁깃	-5858
▁칙	-5859
등을	-5860
면에	-5861
받지	-5862
사단	-5863
션을	-5864
스톤	-5865
시스	-5866
이면	-5867
절을	-5868
집을	-5869
차가	-5870
파로	-5871
포먼	-5872
피를	-5873
한국	-5874
후보	-5875
▁거기	-5876
▁거뒀	-5877
▁게시	-5878
▁고안	-5879
▁공헌	-5880
▁교류	-5881
▁권유	-5882
▁김동	-5883
▁김종	-5884
▁동북	-5885
▁동해	-5886
▁목포	-5887
▁몰려	-5888
▁발라	-5889
▁별로	-5890
▁분산	-5891
▁스미	-5892
▁쓰나	-5893
▁야스	-5894
▁연설	-5895
▁영남	-5896
▁이빨	-5897
▁인수	-5898
▁인치	-5899
▁전라	-5900
▁조종	-5901
▁좌우	-5902
▁중공	-5903
▁충격	-5904
▁편입	-5905
▁피델	-5906
▁하드	-5907
▁향후	-5908
▁황교	-5909
▁힘이	-5910
병으로	-5911
사령관	-5912
원들은	-5913
▁관계에	-5914
▁대체로	-5915
▁대표는	-5916
▁도움이	-5917
▁레이블	-5918
▁리처드	-5919
▁마스터	-5920
▁부동산	-5921
▁비롯해	-5922
▁식민지	-5923
▁않지만	-5924
▁언론에	-5925
▁우리의	-5926
▁원주민	-5927
▁위까지	-5928
▁있다면	-5929
▁작전을	-5930
▁집에서	-5931
▁티베트	-5932
▁판매량	-5933
▁퍼포먼	-5934
▁한국은	-5935
▁헤이우	-5936
▁협상을	-5937
민주연합	-5938
▁결정했다	-5939
▁긍정적인	-5940
▁기록했고	-5941
▁문재인은	-5942
▁미국으로	-5943
▁보여주는	-5944
▁사망했다	-5945
▁실패했다	-5946
▁아니라고	-5947
▁이어지는	-5948
▁지역으로	-5949
▁차전에서	-5950
▁서울특별시	-5951
▁랜	-5952
▁컸	-5953
계와	-5954
고등	-5955
과에	-5956
됐고	-5957
들인	-5958
바라	-5959
았을	-5960
앨범	-5961
연은	-5962
켰다	-5963
크와	-5964
통이	-5965
펙트	-5966
행성	-5967
▁게릭	-5968
▁곳곳	-5969
▁교토	-5970
▁국경	-5971
▁낭만	-5972
▁내는	-5973
▁년경	-5974
▁뉴런	-5975
▁다운	-5976
▁단어	-5977
▁등도	-5978
▁롤링	-5979
▁만명	-5980
▁말할	-5981
▁맞는	-5982
▁매스	-5983
▁무려	-5984
▁물을	-5985
▁부드	-5986
▁삽입	-5987
▁상의	-5988
▁선두	-5989
▁스키	-5990
▁신의	-5991
▁쓰러	-5992
▁양국	-5993
▁어깨	-5994
▁없애	-5995
▁역설	-5996
▁오염	-5997
▁완공	-5998
▁유입	-5999
▁이벤	-6000
▁일도	-6001
▁임무	-6002
▁입원	-6003
▁자식	-6004
▁재미	-6005
▁좋다	-6006
▁주일	-6007
▁진학	-6008
▁찬성	-6009
▁창극	-6010
▁취급	-6011
▁하인	-6012
▁해병	-6013
▁헨리	-6014
나갔다	-6015
들과의	-6016
문에서	-6017
슈타인	-6018
▁가지게	-6019
▁개인의	-6020
▁결과는	-6021
▁도서관	-6022
▁방안을	-6023
▁보스턴	-6024
▁보이고	-6025
▁세계에	-6026
▁속하는	-6027
▁신공항	-6028
▁언제나	-6029
▁열렸다	-6030
▁열리는	-6031
▁음악적	-6032
▁의혹이	-6033
▁이익을	-6034
▁일종의	-6035
▁정부와	-6036
▁집으로	-6037
▁충격을	-6038
▁행정부	-6039
▁화제가	-6040
▁국가정보	-6041
▁그곳에서	-6042
▁선거에서	-6043
▁좋아하는	-6044
▁최진실의	-6045
▁타이틀을	-6046
▁하였는데	-6047
▁中	-6048
▁덩	-6049
▁탓	-6050
가락	-6051
가타	-6052
감독	-6053
게임	-6054
돌프	-6055
되던	-6056
렸던	-6057
마이	-6058
사태	-6059
스케	-6060
슨과	-6061
습을	-6062
실이	-6063
유가	-6064
입어	-6065
족과	-6066
청은	-6067
체로	-6068
클리	-6069
파와	-6070
판에	-6071
포로	-6072
환경	-6073
▁개별	-6074
▁개설	-6075
▁개조	-6076
▁거행	-6077
▁고교	-6078
▁금속	-6079
▁논리	-6080
▁능력	-6081
▁다가	-6082
▁대략	-6083
▁되었	-6084
▁르네	-6085
▁마크	-6086
▁모순	-6087
▁목격	-6088
▁무력	-6089
▁바퀴	-6090
▁보건	-6091
▁불교	-6092
▁산맥	-6093
▁서술	-6094
▁성명	-6095
▁성직	-6096
▁수단	-6097
▁순수	-6098
▁승강	-6099
▁시뮬	-6100
▁심사	-6101
▁아예	-6102
▁안드	-6103
▁않기	-6104
▁어릴	-6105
▁에르	-6106
▁의학	-6107
▁이념	-6108
▁이룬	-6109
▁이순	-6110
▁일환	-6111
▁잠재	-6112
▁저장	-6113
▁철거	-6114
▁측근	-6115
▁커뮤	-6116
▁행복	-6117
▁현장	-6118
▁협약	-6119
▁회고	-6120
주의의	-6121
폴리스	-6122
▁결과로	-6123
▁경험을	-6124
▁두려워	-6125
▁만났다	-6126
▁맺었다	-6127
▁머리를	-6128
▁못한다	-6129
▁무대를	-6130
▁밖으로	-6131
▁병력을	-6132
▁승무원	-6133
▁영토를	-6134
▁영화에	-6135
▁요구를	-6136
▁의지를	-6137
▁주장은	-6138
▁진정한	-6139
▁초기에	-6140
▁특유의	-6141
▁한국인	-6142
▁훈련을	-6143
▁관계자는	-6144
▁상태였다	-6145
▁새누리당	-6146
▁신한청년	-6147
▁지나치게	-6148
▁포함하여	-6149
▁브리트니는	-6150
▁끈	-6151
▁녀	-6152
금은	-6153
련의	-6154
령이	-6155
말을	-6156
무라	-6157
미아	-6158
분야	-6159
상황	-6160
서야	-6161
석에	-6162
수준	-6163
스틴	-6164
신문	-6165
아야	-6166
운트	-6167
음에	-6168
점의	-6169
조합	-6170
주지	-6171
쳤고	-6172
통일	-6173
학에	-6174
회사	-6175
히고	-6176
▁갤럭	-6177
▁거론	-6178
▁건립	-6179
▁광복	-6180
▁구멍	-6181
▁국토	-6182
▁기회	-6183
▁당해	-6184
▁도미	-6185
▁동양	-6186
▁레오	-6187
▁로맨	-6188
▁로빈	-6189
▁맺고	-6190
▁무릎	-6191
▁밝은	-6192
▁부작	-6193
▁서사	-6194
▁소집	-6195
▁스프	-6196
▁신체	-6197
▁실천	-6198
▁심한	-6199
▁에어	-6200
▁여왕	-6201
▁유격	-6202
▁전능	-6203
▁찾는	-6204
▁충청	-6205
▁컨셉	-6206
▁파울	-6207
▁페이	-6208
▁평창	-6209
▁황자	-6210
▁회색	-6211
까지의	-6212
나라는	-6213
장에게	-6214
적이며	-6215
하겠다	-6216
▁당했다	-6217
▁도시의	-6218
▁모양의	-6219
▁못하게	-6220
▁문화재	-6221
▁부대는	-6222
▁사운드	-6223
▁소수의	-6224
▁수도권	-6225
▁스파이	-6226
▁시대를	-6227
▁인간이	-6228
▁일으켜	-6229
▁자체를	-6230
▁체제를	-6231
▁태도를	-6232
▁한국이	-6233
▁행위를	-6234
▁활동에	-6235
▁힘입어	-6236
이었다고	-6237
하였다는	-6238
▁되었다고	-6239
▁발견했다	-6240
▁보유하고	-6241
▁성공했다	-6242
▁실제로는	-6243
▁여러가지	-6244
▁있습니다	-6245
▁있었다는	-6246
▁폼	-6247
과도	-6248
년에	-6249
더니	-6250
우고	-6251
제도	-6252
차는	-6253
층이	-6254
쿠라	-6255
크가	-6256
키의	-6257
파에	-6258
▁강경	-6259
▁계엄	-6260
▁그라	-6261
▁기재	-6262
▁끊임	-6263
▁남녀	-6264
▁넣어	-6265
▁높다	-6266
▁대조	-6267
▁동작	-6268
▁리뷰	-6269
▁마감	-6270
▁만화	-6271
▁맞지	-6272
▁보냈	-6273
▁보안	-6274
▁본질	-6275
▁사우	-6276
▁선제	-6277
▁수양	-6278
▁시공	-6279
▁써서	-6280
▁안무	-6281
▁양도	-6282
▁어두	-6283
▁얻기	-6284
▁없었	-6285
▁여객	-6286
▁오는	-6287
▁육영	-6288
▁잡고	-6289
▁전날	-6290
▁전망	-6291
▁존중	-6292
▁주력	-6293
▁주재	-6294
▁죽을	-6295
▁지각	-6296
▁지연	-6297
▁카시	-6298
▁쿠바	-6299
▁타블	-6300
▁하락	-6301
▁하와	-6302
▁흰색	-6303
들에서	-6304
리자베	-6305
▁게임의	-6306
▁경우에	-6307
▁끝났다	-6308
▁논문을	-6309
▁대화를	-6310
▁동맹을	-6311
▁로부터	-6312
▁루이스	-6313
▁사이트	-6314
▁소규모	-6315
▁스페셜	-6316
▁시즌이	-6317
▁알렸다	-6318
▁연구는	-6319
▁영화를	-6320
▁운동은	-6321
▁이루고	-6322
▁이른다	-6323
▁이유를	-6324
▁자금을	-6325
▁작품의	-6326
▁중국은	-6327
▁하나가	-6328
▁행사를	-6329
▁현상이	-6330
인들에게	-6331
▁부상으로	-6332
▁직접적인	-6333
▁그레고리오	-6334
▁알로사우루스	-6335
▁닉	-6336
▁닌	-6337
▁봤	-6338
도르	-6339
로도	-6340
로드	-6341
민족	-6342
보면	-6343
숙한	-6344
실한	-6345
안보	-6346
업에	-6347
에르	-6348
역에	-6349
이아	-6350
타와	-6351
타운	-6352
행위	-6353
화폐	-6354
▁가끔	-6355
▁가난	-6356
▁걸어	-6357
▁교도	-6358
▁군에	-6359
▁규제	-6360
▁기상	-6361
▁기생	-6362
▁노스	-6363
▁담배	-6364
▁대결	-6365
▁대를	-6366
▁대우	-6367
▁동참	-6368
▁두드	-6369
▁들여	-6370
▁레드	-6371
▁로이	-6372
▁미쓰	-6373
▁바닥	-6374
▁블로	-6375
▁삼아	-6376
▁색깔	-6377
▁선배	-6378
▁수원	-6379
▁아리	-6380
▁양성	-6381
▁운용	-6382
▁유고	-6383
▁유효	-6384
▁이고	-6385
▁일곱	-6386
▁일대	-6387
▁장비	-6388
▁전공	-6389
▁접착	-6390
▁중시	-6391
▁즉각	-6392
▁체코	-6393
▁초에	-6394
▁침입	-6395
▁켈피	-6396
▁콜로	-6397
▁크루	-6398
▁평소	-6399
▁폭로	-6400
▁피어	-6401
▁피트	-6402
▁하위	-6403
▁힘든	-6404
군으로	-6405
면으로	-6406
우스와	-6407
▁게임을	-6408
▁곳으로	-6409
▁군대는	-6410
▁내부의	-6411
▁대회를	-6412
▁데뷔를	-6413
▁분명히	-6414
▁생각해	-6415
▁선정한	-6416
▁속도를	-6417
▁스탈린	-6418
▁아시안	-6419
▁안타를	-6420
▁여부를	-6421
▁역사가	-6422
▁의미가	-6423
▁의식을	-6424
▁이루는	-6425
▁제안을	-6426
▁종교적	-6427
▁주장한	-6428
▁지금은	-6429
▁지휘관	-6430
▁찾아가	-6431
▁콘스탄	-6432
위원회는	-6433
▁등장한다	-6434
▁보여준다	-6435
▁소프트웨	-6436
▁어머니는	-6437
▁언급했다	-6438
▁있으므로	-6439
▁자신들이	-6440
▁전능하신	-6441
▁전두환은	-6442
▁지지하는	-6443
▁크리스티	-6444
▁형식으로	-6445
▁라부아지에	-6446
▁이르기까지	-6447
▁챔피언스리그	-6448
▁딱	-6449
등한	-6450
랑은	-6451
마자	-6452
미는	-6453
미르	-6454
버드	-6455
보가	-6456
브로	-6457
융합	-6458
자책	-6459
조건	-6460
추어	-6461
캠퍼	-6462
▁간부	-6463
▁강을	-6464
▁개로	-6465
▁고립	-6466
▁고통	-6467
▁곳을	-6468
▁구상	-6469
▁그중	-6470
▁기도	-6471
▁날개	-6472
▁대가	-6473
▁독점	-6474
▁동반	-6475
▁동행	-6476
▁드루	-6477
▁땅을	-6478
▁로넌	-6479
▁로드	-6480
▁리메	-6481
▁멸종	-6482
▁물어	-6483
▁물이	-6484
▁믿고	-6485
▁배포	-6486
▁선을	-6487
▁수축	-6488
▁쉬운	-6489
▁신고	-6490
▁싶다	-6491
▁예능	-6492
▁예방	-6493
▁왕이	-6494
▁위안	-6495
▁인쇄	-6496
▁장소	-6497
▁정교	-6498
▁주된	-6499
▁지내	-6500
▁차이	-6501
▁척의	-6502
▁천여	-6503
▁출현	-6504
▁카르	-6505
▁캠프	-6506
▁통화	-6507
▁패턴	-6508
▁표명	-6509
▁피겨	-6510
▁혐오	-6511
▁혼합	-6512
▁환영	-6513
갔으며	-6514
광역시	-6515
법으로	-6516
자였던	-6517
졌다고	-6518
하여야	-6519
▁거기에	-6520
▁계획이	-6521
▁급격히	-6522
▁늘어나	-6523
▁덴마크	-6524
▁드러나	-6525
▁라이프	-6526
▁바그너	-6527
▁베이스	-6528
▁베일은	-6529
▁서서히	-6530
▁성공한	-6531
▁수준의	-6532
▁실패로	-6533
▁여성이	-6534
▁영국은	-6535
▁운동에	-6536
▁위에서	-6537
▁위치에	-6538
▁일정한	-6539
▁준비를	-6540
▁지방의	-6541
▁지진이	-6542
▁진행된	-6543
▁처음에	-6544
▁총학생	-6545
▁토머스	-6546
▁특정한	-6547
▁한국에	-6548
▁활동이	-6549
▁김보름이	-6550
▁민족주의	-6551
▁박정희의	-6552
▁발생했다	-6553
▁영화에서	-6554
▁이듬해인	-6555
▁존재하지	-6556
▁차원에서	-6557
▁평균자책	-6558
▁사망하였다	-6559
▁오스트레일리아까	-6560
▁셈	-6561
▁틈	-6562
강을	-6563
로소	-6564
론에	-6565
률은	-6566
세한	-6567
시즘	-6568
실험	-6569
악의	-6570
에이	-6571
요시	-6572
웠던	-6573
적의	-6574
진보	-6575
치기	-6576
투스	-6577
포르	-6578
행이	-6579
협의	-6580
▁..	-6581
▁가문	-6582
▁고종	-6583
▁군의	-6584
▁극단	-6585
▁깊이	-6586
▁남긴	-6587
▁누가	-6588
▁느껴	-6589
▁막을	-6590
▁목성	-6591
▁문헌	-6592
▁보니	-6593
▁보헤	-6594
▁부를	-6595
▁비잔	-6596
▁사형	-6597
▁상상	-6598
▁셋째	-6599
▁아빠	-6600
▁어울	-6601
▁어워	-6602
▁왕건	-6603
▁우익	-6604
▁월의	-6605
▁의도	-6606
▁이휘	-6607
▁일과	-6608
▁자가	-6609
▁장식	-6610
▁적대	-6611
▁전염	-6612
▁정비	-6613
▁종이	-6614
▁진원	-6615
▁착용	-6616
▁창당	-6617
▁창원	-6618
▁체류	-6619
▁체육	-6620
▁추산	-6621
▁타수	-6622
▁특성	-6623
▁파르	-6624
▁포격	-6625
▁포획	-6626
▁프롤	-6627
▁필수	-6628
▁홀로	-6629
▁화장	-6630
국에서	-6631
금으로	-6632
태평양	-6633
▁가수로	-6634
▁끝까지	-6635
▁대학의	-6636
▁덕분에	-6637
▁둘러싼	-6638
▁마쳤다	-6639
▁만들기	-6640
▁무기를	-6641
▁미치는	-6642
▁민간인	-6643
▁방법이	-6644
▁비난을	-6645
▁비트코	-6646
▁세금을	-6647
▁시간에	-6648
▁시위를	-6649
▁실험을	-6650
▁어렵다	-6651
▁여배우	-6652
▁역할로	-6653
▁완벽한	-6654
▁왕국의	-6655
▁운동이	-6656
▁입었다	-6657
▁있었을	-6658
▁자료를	-6659
▁주제를	-6660
▁타격을	-6661
▁타점을	-6662
▁투어를	-6663
▁풍부한	-6664
▁필요로	-6665
▁황제가	-6666
▁후반에	-6667
▁김규식은	-6668
▁김대중의	-6669
▁박근혜의	-6670
▁사용한다	-6671
▁옹정제는	-6672
▁웹사이트	-6673
▁임수혁의	-6674
▁중국에서	-6675
▁초등학교	-6676
▁크리스토	-6677
▁활동했다	-6678
▁후쿠시마	-6679
▁시뮬레이션	-6680
▁확인되었다	-6681
▁봐	-6682
▁옳	-6683
▁켄	-6684
고도	-6685
널드	-6686
독립	-6687
라와	-6688
렸을	-6689
부대	-6690
산의	-6691
생물	-6692
셨다	-6693
에의	-6694
오고	-6695
유한	-6696
자유	-6697
정당	-6698
졌을	-6699
중한	-6700
차로	-6701
...	-6702
▁가라	-6703
▁게재	-6704
▁경선	-6705
▁경주	-6706
▁고수	-6707
▁곡이	-6708
▁공약	-6709
▁공직	-6710
▁관할	-6711
▁구사	-6712
▁나아	-6713
▁나올	-6714
▁난이	-6715
▁내린	-6716
▁듯한	-6717
▁로렌	-6718
▁먹고	-6719
▁며칠	-6720
▁모험	-6721
▁몸에	-6722
▁박탈	-6723
▁부속	-6724
▁붙잡	-6725
▁석방	-6726
▁석유	-6727
▁소환	-6728
▁승진	-6729
▁싫어	-6730
▁아웃	-6731
▁올린	-6732
▁옹호	-6733
▁일명	-6734
▁입을	-6735
▁저격	-6736
▁전압	-6737
▁전직	-6738
▁죽이	-6739
▁중지	-6740
▁특전	-6741
▁포털	-6742
▁피처	-6743
▁한성	-6744
▁현존	-6745
▁흘러	-6746
곡으로	-6747
니아의	-6748
단에서	-6749
당에서	-6750
렸으나	-6751
우스가	-6752
졌다는	-6753
캠퍼스	-6754
형으로	-6755
▁가지는	-6756
▁거리를	-6757
▁근처에	-6758
▁금메달	-6759
▁기간에	-6760
▁데리고	-6761
▁둘러싸	-6762
▁막대한	-6763
▁바이올	-6764
▁보여준	-6765
▁세우고	-6766
▁소송을	-6767
▁스위프	-6768
▁안으로	-6769
▁업적을	-6770
▁위키백	-6771
▁유니폼	-6772
▁전체를	-6773
▁정당이	-6774
▁정치를	-6775
▁조약을	-6776
▁중국인	-6777
▁중이던	-6778
▁진출을	-6779
▁프리미	-6780
▁후보는	-6781
투아니아	-6782
▁공동으로	-6783
▁그리스도	-6784
▁단식투쟁	-6785
▁달성했다	-6786
▁리그에서	-6787
▁아니냐는	-6788
▁엘리자베	-6789
▁여우주연	-6790
▁장기하는	-6791
▁전형적인	-6792
▁초기에는	-6793
▁판매량을	-6794
▁동계올림픽	-6795
▁만슈타인의	-6796
▁유나이티드	-6797
▁임명되었다	-6798
▁지역에서는	-6799
▁최종적으로	-6800
ii	-6801
▁⇒	-6802
▁∼	-6803
▁겐	-6804
▁뚫	-6805
▁웅	-6806
▁첩	-6807
거를	-6808
기준	-6809
기획	-6810
끼리	-6811
대장	-6812
라엘	-6813
리나	-6814
말로	-6815
소한	-6816
속히	-6817
수석	-6818
위와	-6819
티움	-6820
판이	-6821
황후	-6822
▁가득	-6823
▁감행	-6824
▁강에	-6825
▁개방	-6826
▁개척	-6827
▁경비	-6828
▁그다	-6829
▁기름	-6830
▁대외	-6831
▁리버	-6832
▁맡고	-6833
▁법을	-6834
▁변희	-6835
▁브래	-6836
▁비례	-6837
▁소멸	-6838
▁수영	-6839
▁양쪽	-6840
▁언덕	-6841
▁없기	-6842
▁유발	-6843
▁자는	-6844
▁자라	-6845
▁장치	-6846
▁조치	-6847
▁좁은	-6848
▁좌파	-6849
▁주축	-6850
▁진급	-6851
▁책은	-6852
▁천연	-6853
▁축삭	-6854
▁탈당	-6855
▁튀코	-6856
▁합법	-6857
▁합병	-6858
▁해운	-6859
▁향한	-6860
▁혐의	-6861
▁호족	-6862
▁홍가	-6863
▁화석	-6864
났으며	-6865
이트를	-6866
▁강제로	-6867
▁강희제	-6868
▁결혼을	-6869
▁나오지	-6870
▁뒤이어	-6871
▁뜻하는	-6872
▁르네상	-6873
▁문화를	-6874
▁바이러	-6875
▁반면에	-6876
▁발견한	-6877
▁보다는	-6878
▁부르고	-6879
▁사태가	-6880
▁스티븐	-6881
▁아르키	-6882
▁아이스	-6883
▁역사를	-6884
▁오프닝	-6885
▁올랐고	-6886
▁의혹을	-6887
▁정확히	-6888
▁조직의	-6889
▁주변에	-6890
▁주제로	-6891
▁지나친	-6892
▁지냈다	-6893
▁출전해	-6894
▁학교를	-6895
▁행성이	-6896
위원회를	-6897
위원회의	-6898
적이었다	-6899
▁결정적인	-6900
▁남쪽으로	-6901
▁대한항공	-6902
▁스케이팅	-6903
▁영향으로	-6904
▁주장하며	-6905
▁차지하고	-6906
▁총선에서	-6907
▁프랑스어	-6908
▁비판하였다	-6909
▁연세대학교	-6910
▁출시되었다	-6911
▁닮	-6912
▁콩	-6913
▁쿰	-6914
▁템	-6915
고의	-6916
느러	-6917
니츠	-6918
더는	-6919
디는	-6920
란을	-6921
리코	-6922
메데	-6923
보에	-6924
액은	-6925
업이	-6926
역의	-6927
왕후	-6928
조한	-6929
참모	-6930
측의	-6931
컨대	-6932
해주	-6933
▁갑작	-6934
▁거대	-6935
▁걱정	-6936
▁견제	-6937
▁공감	-6938
▁공전	-6939
▁굉장	-6940
▁노태	-6941
▁대처	-6942
▁되찾	-6943
▁두산	-6944
▁딜런	-6945
▁레벨	-6946
▁리드	-6947
▁말은	-6948
▁모욕	-6949
▁목록	-6950
▁문을	-6951
▁바른	-6952
▁버전	-6953
▁생태	-6954
▁손에	-6955
▁손해	-6956
▁수술	-6957
▁스탠	-6958
▁스틸	-6959
▁알파	-6960
▁앙리	-6961
▁약화	-6962
▁영양	-6963
▁예외	-6964
▁원인	-6965
▁의지	-6966
▁장성	-6967
▁적의	-6968
▁준우	-6969
▁지칭	-6970
▁직무	-6971
▁집필	-6972
▁찾기	-6973
▁카페	-6974
▁크기	-6975
▁투구	-6976
▁폭행	-6977
▁해상	-6978
▁했을	-6979
▁화가	-6980
▁화려	-6981
▁화물	-6982
▁화성	-6983
▁확신	-6984
되지만	-6985
리면서	-6986
버렸다	-6987
베리아	-6988
역에서	-6989
정책을	-6990
학교를	-6991
▁계약이	-6992
▁공개된	-6993
▁나갔다	-6994
▁버렸다	-6995
▁부모님	-6996
▁상호작	-6997
▁수사를	-6998
▁십자군	-6999
▁아직도	-7000
▁업무를	-7001
▁없지만	-7002
▁유고슬	-7003
▁이미지	-7004
▁일련의	-7005
▁있다가	-7006
▁정책은	-7007
▁차례의	-7008
▁토대로	-7009
▁피처링	-7010
▁하버드	-7011
▁행성의	-7012
▁현상을	-7013
▁후보를	-7014
프로그램	-7015
▁그리스의	-7016
▁년부터는	-7017
▁민주노동	-7018
▁보도했다	-7019
▁서울에서	-7020
▁시민들이	-7021
▁아버지의	-7022
▁연속으로	-7023
▁이끌었다	-7024
▁주장하고	-7025
▁측면에서	-7026
▁아르키메데	-7027
▁알로사우루	-7028
▁차지하였다	-7029
▁新	-7030
▁갇	-7031
▁빗	-7032
▁샀	-7033
▁힌	-7034
강의	-7035
르시	-7036
리노	-7037
린턴	-7038
생이	-7039
수도	-7040
시고	-7041
액의	-7042
용의	-7043
조로	-7044
차례	-7045
차에	-7046
타로	-7047
택을	-7048
품이	-7049
▁가솔	-7050
▁각기	-7051
▁간섭	-7052
▁객관	-7053
▁결심	-7054
▁공략	-7055
▁구현	-7056
▁국군	-7057
▁귀신	-7058
▁기하	-7059
▁나를	-7060
▁나선	-7061
▁내지	-7062
▁노바	-7063
▁눈을	-7064
▁눈이	-7065
▁다녔	-7066
▁다리	-7067
▁당원	-7068
▁대동	-7069
▁로저	-7070
▁마틴	-7071
▁만여	-7072
▁맡게	-7073
▁매출	-7074
▁미친	-7075
▁바티	-7076
▁박물	-7077
▁법학	-7078
▁분자	-7079
▁블라	-7080
▁사령	-7081
▁상처	-7082
▁새겨	-7083
▁선진	-7084
▁성능	-7085
▁수리	-7086
▁슬로	-7087
▁시냅	-7088
▁심장	-7089
▁양키	-7090
▁얻고	-7091
▁와서	-7092
▁왜냐	-7093
▁왼쪽	-7094
▁유저	-7095
▁유학	-7096
▁음모	-7097
▁작사	-7098
▁재현	-7099
▁종사	-7100
▁종의	-7101
▁중독	-7102
▁지질	-7103
▁청문	-7104
▁카툰	-7105
▁컬링	-7106
▁코너	-7107
▁코치	-7108
▁쾌속	-7109
▁토니	-7110
▁파일	-7111
▁퍼센	-7112
▁표본	-7113
▁풀어	-7114
▁피의	-7115
▁흡연	-7116
달라고	-7117
대학원	-7118
동으로	-7119
진으로	-7120
▁개발을	-7121
▁건륭제	-7122
▁굉장히	-7123
▁국가가	-7124
▁군사를	-7125
▁그러던	-7126
▁그러자	-7127
▁기반을	-7128
▁도시를	-7129
▁뛰어넘	-7130
▁미국을	-7131
▁방문한	-7132
▁방송을	-7133
▁생각이	-7134
▁스프링	-7135
▁시절에	-7136
▁예술가	-7137
▁인물이	-7138
▁임무를	-7139
▁적절한	-7140
▁제작한	-7141
▁최대한	-7142
▁충돌구	-7143
▁포함된	-7144
▁한국을	-7145
▁한동안	-7146
▁대통령에	-7147
▁데뷔했다	-7148
▁디자이너	-7149
▁부분에서	-7150
▁세계적인	-7151
▁이스라엘	-7152
▁이전에는	-7153
▁페이스북	-7154
▁하더라도	-7155
▁하인리히	-7156
▁히로시마	-7157
▁대통령에게	-7158
▁스피어스는	-7159
▁이탈리아의	-7160
▁한편으로는	-7161
▁깔	-7162
▁쇄	-7163
▁엉	-7164
▁짝	-7165
가고	-7166
거는	-7167
고에	-7168
기지	-7169
달아	-7170
로에	-7171
림이	-7172
마르	-7173
번의	-7174
법원	-7175
분의	-7176
색이	-7177
송을	-7178
이상	-7179
임이	-7180
차별	-7181
차의	-7182
클럽	-7183
키지	-7184
▁가필	-7185
▁게오	-7186
▁계몽	-7187
▁공무	-7188
▁단행	-7189
▁던져	-7190
▁동방	-7191
▁두개	-7192
▁따뜻	-7193
▁만의	-7194
▁매각	-7195
▁머무	-7196
▁면담	-7197
▁밀어	-7198
▁밖의	-7199
▁반도	-7200
▁번도	-7201
▁병력	-7202
▁복합	-7203
▁빈번	-7204
▁사기	-7205
▁산소	-7206
▁속도	-7207
▁수습	-7208
▁아는	-7209
▁야생	-7210
▁어른	-7211
▁엘리	-7212
▁영혼	-7213
▁왕국	-7214
▁외환	-7215
▁유용	-7216
▁이룩	-7217
▁자격	-7218
▁재임	-7219
▁적색	-7220
▁전남	-7221
▁전작	-7222
▁조회	-7223
▁지형	-7224
▁집안	-7225
▁총선	-7226
▁추적	-7227
▁취재	-7228
▁테오	-7229
▁포병	-7230
▁하야	-7231
▁학자	-7232
▁해임	-7233
▁허가	-7234
▁화합	-7235
▁후지	-7236
▁휩쓸	-7237
내었다	-7238
되었기	-7239
시스코	-7240
졌으나	-7241
학자인	-7242
▁계획은	-7243
▁곡으로	-7244
▁궤도를	-7245
▁대상을	-7246
▁도중에	-7247
▁마리의	-7248
▁보고서	-7249
▁비평가	-7250
▁아니며	-7251
▁아이를	-7252
▁와중에	-7253
▁의사소	-7254
▁의원의	-7255
▁이어져	-7256
▁인공지	-7257
▁일본인	-7258
▁일부가	-7259
▁자신과	-7260
▁주요한	-7261
▁지시를	-7262
▁차례로	-7263
▁출연해	-7264
▁팬들이	-7265
▁피해가	-7266
▁핀란드	-7267
▁화제를	-7268
▁후보의	-7269
▁히틀러	-7270
들에게는	-7271
학적으로	-7272
▁규정하고	-7273
▁대부분을	-7274
▁도착했다	-7275
▁돌아왔다	-7276
▁마이크로	-7277
▁사용되고	-7278
▁암호화폐	-7279
▁여겨진다	-7280
▁운영하는	-7281
▁유럽에서	-7282
▁적극적인	-7283
▁추측된다	-7284
▁킬로미터	-7285
▁더불어민주당	-7286
▁유고슬라비아	-7287
▁≪	-7288
▁겁	-7289
▁랑	-7290
▁앓	-7291
가수	-7292
그래	-7293
금의	-7294
다이	-7295
동에	-7296
됨에	-7297
디스	-7298
로와	-7299
론은	-7300
르와	-7301
부문	-7302
소득	-7303
스포	-7304
슬레	-7305
신과	-7306
심은	-7307
심의	-7308
우치	-7309
증이	-7310
차트	-7311
체인	-7312
총독	-7313
파이	-7314
페라	-7315
해에	-7316
▁경매	-7317
▁경전	-7318
▁계층	-7319
▁고급	-7320
▁균형	-7321
▁기용	-7322
▁김재	-7323
▁날아	-7324
▁내고	-7325
▁노부	-7326
▁닌텐	-7327
▁대원	-7328
▁들을	-7329
▁박영	-7330
▁발의	-7331
▁배가	-7332
▁보완	-7333
▁보지	-7334
▁부과	-7335
▁부황	-7336
▁북경	-7337
▁북서	-7338
▁사립	-7339
▁사막	-7340
▁성사	-7341
▁실용	-7342
▁실종	-7343
▁약한	-7344
▁언더	-7345
▁오딘	-7346
▁요미	-7347
▁유인	-7348
▁유포	-7349
▁의뢰	-7350
▁인류	-7351
▁일관	-7352
▁자원	-7353
▁장수	-7354
▁전술	-7355
▁점수	-7356
▁정차	-7357
▁조기	-7358
▁조별	-7359
▁좌절	-7360
▁준공	-7361
▁진짜	-7362
▁참고	-7363
▁크리	-7364
▁탈삼	-7365
▁통계	-7366
▁트레	-7367
▁팽창	-7368
▁한층	-7369
▁해적	-7370
▁협회	-7371
까지만	-7372
레이크	-7373
미사일	-7374
안으로	-7375
어졌다	-7376
위에서	-7377
증으로	-7378
체에서	-7379
화되어	-7380
회의를	-7381
▁가솔린	-7382
▁가치를	-7383
▁것보다	-7384
▁경기장	-7385
▁경찰의	-7386
▁공산당	-7387
▁동안에	-7388
▁뒤에는	-7389
▁명성을	-7390
▁모르는	-7391
▁무거운	-7392
▁미야기	-7393
▁발매된	-7394
▁보내는	-7395
▁비로소	-7396
▁사우스	-7397
▁사진을	-7398
▁생각한	-7399
▁아들을	-7400
▁영국과	-7401
▁위기에	-7402
▁이름의	-7403
▁일었다	-7404
▁작품에	-7405
▁재산을	-7406
▁조금씩	-7407
▁주장도	-7408
▁중대한	-7409
▁초기의	-7410
▁컨트리	-7411
▁한국과	-7412
▁할아버	-7413
▁항공기	-7414
▁핵융합	-7415
▁허리케	-7416
▁헝가리	-7417
스케이팅	-7418
▁도움으로	-7419
▁독자적인	-7420
▁박정희는	-7421
▁베네치아	-7422
▁생각된다	-7423
▁에드워드	-7424
▁조지아의	-7425
▁학자들은	-7426
▁한편으로	-7427
▁히틀러는	-7428
▁때문이라고	-7429
▁이루어진다	-7430
▁닿	-7431
▁멋	-7432
▁쌀	-7433
▁턱	-7434
▁펑	-7435
▁핸	-7436
▁흠	-7437
검찰	-7438
겼고	-7439
공개	-7440
공학	-7441
금이	-7442
기념	-7443
기인	-7444
내어	-7445
등록	-7446
래의	-7447
레는	-7448
미와	-7449
발을	-7450
보호	-7451
영과	-7452
월드	-7453
웠고	-7454
인들	-7455
자치	-7456
족은	-7457
청이	-7458
카의	-7459
터는	-7460
풍을	-7461
프랑	-7462
하니	-7463
현의	-7464
화학	-7465
희는	-7466
힌다	-7467
▁가벼	-7468
▁것인	-7469
▁경신	-7470
▁계통	-7471
▁고지	-7472
▁공업	-7473
▁극우	-7474
▁기증	-7475
▁나눠	-7476
▁뉴질	-7477
▁느린	-7478
▁담고	-7479
▁대강	-7480
▁둘은	-7481
▁떠난	-7482
▁떠오	-7483
▁마찰	-7484
▁막부	-7485
▁말미	-7486
▁매장	-7487
▁무관	-7488
▁미시	-7489
▁배정	-7490
▁백작	-7491
▁보관	-7492
▁보기	-7493
▁보좌	-7494
▁부친	-7495
▁부흥	-7496
▁불편	-7497
▁산화	-7498
▁살펴	-7499
▁속한	-7500
▁쇠퇴	-7501
▁수소	-7502
▁식물	-7503
▁신흥	-7504
▁위기	-7505
▁이례	-7506
▁이영	-7507
▁일주	-7508
▁전속	-7509
▁전용	-7510
▁정밀	-7511
▁조국	-7512
▁종류	-7513
▁주에	-7514
▁지고	-7515
▁철회	-7516
▁케빈	-7517
▁탈환	-7518
▁토벌	-7519
▁트윈	-7520
▁파병	-7521
▁표절	-7522
▁한쪽	-7523
▁한화	-7524
계약을	-7525
사령부	-7526
였다는	-7527
있었다	-7528
자동차	-7529
중에는	-7530
중에서	-7531
펙트럼	-7532
합니다	-7533
▁경찰이	-7534
▁관련한	-7535
▁낳았다	-7536
▁노선을	-7537
▁대회에	-7538
▁로트너	-7539
▁마리가	-7540
▁마음에	-7541
▁마음이	-7542
▁마이너	-7543
▁메이지	-7544
▁물러나	-7545
▁미나마	-7546
▁버리고	-7547
▁보이며	-7548
▁부족한	-7549
▁사회에	-7550
▁시리아	-7551
▁실력을	-7552
▁아무도	-7553
▁아이디	-7554
▁언론의	-7555
▁열차가	-7556
▁위협을	-7557
▁이외에	-7558
▁인류의	-7559
▁전동차	-7560
▁정책에	-7561
▁제치고	-7562
▁조정의	-7563
▁차이를	-7564
▁최대의	-7565
▁터미널	-7566
▁평가가	-7567
▁하거나	-7568
▁후지와	-7569
스부르크	-7570
회의에서	-7571
▁공격하는	-7572
▁공식적인	-7573
▁기록되어	-7574
▁뉴질랜드	-7575
▁매스스타	-7576
▁명예훼손	-7577
▁사용했다	-7578
▁생각하고	-7579
▁성공적인	-7580
▁에너지를	-7581
▁왜냐하면	-7582
▁유로파의	-7583
▁은메달을	-7584
▁일어나고	-7585
▁졸업하고	-7586
▁콘서트를	-7587
▁아우구스투스는	-7588
▁낼	-7589
▁딤	-7590
▁팩	-7591
대문	-7592
려면	-7593
령의	-7594
로써	-7595
먼트	-7596
받을	-7597
범죄	-7598
비히	-7599
서와	-7600
실은	-7601
였기	-7602
오로	-7603
자원	-7604
전투	-7605
지구	-7606
카가	-7607
키아	-7608
턴의	-7609
평화	-7610
하마	-7611
해줄	-7612
▁가온	-7613
▁감정	-7614
▁고리	-7615
▁교향	-7616
▁구출	-7617
▁궁극	-7618
▁극찬	-7619
▁꼬리	-7620
▁대두	-7621
▁대성	-7622
▁등급	-7623
▁리플	-7624
▁마돈	-7625
▁말도	-7626
▁모방	-7627
▁모터	-7628
▁무사	-7629
▁바꿔	-7630
▁번식	-7631
▁벌인	-7632
▁부패	-7633
▁북동	-7634
▁분이	-7635
▁사절	-7636
▁서구	-7637
▁성을	-7638
▁수치	-7639
▁순천	-7640
▁숭배	-7641
▁시마	-7642
▁억압	-7643
▁엄격	-7644
▁여운	-7645
▁옆에	-7646
▁완화	-7647
▁요코	-7648
▁우울	-7649
▁워커	-7650
▁음식	-7651
▁이회	-7652
▁인문	-7653
▁임신	-7654
▁적고	-7655
▁점에	-7656
▁죽고	-7657
▁중계	-7658
▁찾을	-7659
▁책봉	-7660
▁청산	-7661
▁총을	-7662
▁축적	-7663
▁치열	-7664
▁친일	-7665
▁코벨	-7666
▁티켓	-7667
▁파워	-7668
▁평안	-7669
▁핵무	-7670
마니아	-7671
성에서	-7672
슬레틱	-7673
에서만	-7674
이면서	-7675
주의는	-7676
했다가	-7677
▁갤럭시	-7678
▁것인데	-7679
▁구스타	-7680
▁군대가	-7681
▁그렇지	-7682
▁기사를	-7683
▁끝으로	-7684
▁년간의	-7685
▁독일어	-7686
▁두번째	-7687
▁두었다	-7688
▁드래곤	-7689
▁드레퓌	-7690
▁득점을	-7691
▁면에서	-7692
▁목표를	-7693
▁발전에	-7694
▁사용된	-7695
▁세이부	-7696
▁소설을	-7697
▁스튜어	-7698
▁스피드	-7699
▁압력을	-7700
▁예컨대	-7701
▁오리지	-7702
▁요소를	-7703
▁음식을	-7704
▁이용할	-7705
▁일본을	-7706
▁장면은	-7707
▁전체의	-7708
▁전투가	-7709
▁전투를	-7710
▁정치에	-7711
▁조정에	-7712
▁조직을	-7713
▁중심이	-7714
▁철저한	-7715
▁캠퍼스	-7716
▁타임스	-7717
▁파이어	-7718
▁한국어	-7719
▁김일성은	-7720
▁끊임없이	-7721
▁노르웨이	-7722
▁대학교의	-7723
▁리메이크	-7724
▁미나마타	-7725
▁애슬레틱	-7726
▁올림픽을	-7727
▁움직임을	-7728
▁이야기가	-7729
▁인공지능	-7730
▁인터뷰를	-7731
▁일환으로	-7732
▁제안했다	-7733
▁케플러의	-7734
▁필요성을	-7735
▁함으로써	-7736
▁건국대학교	-7737
▁만들어졌다	-7738
▁일시적으로	-7739
▁『	-7740
▁갔	-7741
▁잦	-7742
▁횟	-7743
나타	-7744
니를	-7745
데리	-7746
디움	-7747
료가	-7748
리티	-7749
림을	-7750
미로	-7751
미야	-7752
속에	-7753
오의	-7754
온다	-7755
우트	-7756
조약	-7757
중근	-7758
측이	-7759
하가	-7760
한테	-7761
▁가량	-7762
▁가질	-7763
▁갤리	-7764
▁경호	-7765
▁공백	-7766
▁교과	-7767
▁극장	-7768
▁기구	-7769
▁기습	-7770
▁레알	-7771
▁로서	-7772
▁리얼	-7773
▁마케	-7774
▁만일	-7775
▁모니	-7776
▁몰락	-7777
▁배상	-7778
▁벨라	-7779
▁부장	-7780
▁불을	-7781
▁비스	-7782
▁비율	-7783
▁세부	-7784
▁수천	-7785
▁수평	-7786
▁숙의	-7787
▁시범	-7788
▁액션	-7789
▁앤드	-7790
▁오로	-7791
▁울산	-7792
▁원년	-7793
▁원소	-7794
▁이시	-7795
▁일원	-7796
▁잃고	-7797
▁저널	-7798
▁전위	-7799
▁존경	-7800
▁진단	-7801
▁체제	-7802
▁출석	-7803
▁클레	-7804
▁태극	-7805
▁테이	-7806
▁퇴각	-7807
▁포트	-7808
▁폭넓	-7809
▁피난	-7810
▁합성	-7811
▁혼즈	-7812
거리는	-7813
냈으며	-7814
당하는	-7815
렸는데	-7816
렸지만	-7817
이었기	-7818
파이어	-7819
해지고	-7820
▁...	-7821
▁가치가	-7822
▁걸그룹	-7823
▁결과에	-7824
▁결론을	-7825
▁공무원	-7826
▁관하여	-7827
▁기능이	-7828
▁기록에	-7829
▁기록해	-7830
▁기업의	-7831
▁너무나	-7832
▁대학에	-7833
▁등장인	-7834
▁로마에	-7835
▁묘호를	-7836
▁문제의	-7837
▁북한은	-7838
▁비용을	-7839
▁사로잡	-7840
▁사이드	-7841
▁선거를	-7842
▁선수를	-7843
▁세상에	-7844
▁소식이	-7845
▁속도로	-7846
▁수양버	-7847
▁수익을	-7848
▁승리로	-7849
▁아니면	-7850
▁약속을	-7851
▁어두운	-7852
▁위험한	-7853
▁음악에	-7854
▁의정부	-7855
▁인구의	-7856
▁일부로	-7857
▁자격을	-7858
▁자리잡	-7859
▁조직은	-7860
▁주장에	-7861
▁지상파	-7862
▁최악의	-7863
▁혐의를	-7864
과학기술	-7865
▁가능하게	-7866
▁가톨릭교	-7867
▁그들에게	-7868
▁마르크스	-7869
▁메시지를	-7870
▁목소리를	-7871
▁발표하고	-7872
▁배경으로	-7873
▁생각하는	-7874
▁아니라는	-7875
▁움직이는	-7876
▁유지하고	-7877
▁지휘하는	-7878
▁코벨레스	-7879
▁통합진보	-7880
▁한국에서	-7881
▁가톨릭교회	-7882
▁경기에서는	-7883
▁계속되었다	-7884
▁고려대학교	-7885
▁아르헨티나	-7886
▁닛	-7887
▁돋	-7888
▁뻗	-7889
▁탱	-7890
▁험	-7891
▁훔	-7892
것도	-7893
공동	-7894
두에	-7895
등이	-7896
로나	-7897
루가	-7898
리다	-7899
민의	-7900
민이	-7901
받침	-7902
브란	-7903
서양	-7904
소속	-7905
아리	-7906
에른	-7907
열이	-7908
인한	-7909
주식	-7910
주와	-7911
질은	-7912
클린	-7913
타이	-7914
터의	-7915
퍼는	-7916
페르	-7917
폭력	-7918
프란	-7919
해와	-7920
행은	-7921
행정	-7922
현악	-7923
호쿠	-7924
환은	-7925
▁가미	-7926
▁간접	-7927
▁경남	-7928
▁구름	-7929
▁군중	-7930
▁긴장	-7931
▁날짜	-7932
▁네팔	-7933
▁다다	-7934
▁단백	-7935
▁돌연	-7936
▁동네	-7937
▁때가	-7938
▁매카	-7939
▁명문	-7940
▁모으	-7941
▁무덤	-7942
▁번을	-7943
▁보복	-7944
▁본인	-7945
▁빠진	-7946
▁산하	-7947
▁삼국	-7948
▁샤를	-7949
▁서독	-7950
▁소문	-7951
▁소지	-7952
▁승을	-7953
▁시나	-7954
▁시칠	-7955
▁신이	-7956
▁아쉬	-7957
▁연루	-7958
▁열고	-7959
▁워홀	-7960
▁웨이	-7961
▁육상	-7962
▁이수	-7963
▁잃은	-7964
▁전신	-7965
▁접속	-7966
▁주병	-7967
▁지능	-7968
▁착륙	-7969
▁천명	-7970
▁촉진	-7971
▁카운	-7972
▁트루	-7973
▁학부	-7974
▁후예	-7975
래스카	-7976
브리지	-7977
생활을	-7978
시우스	-7979
음으로	-7980
이므로	-7981
주의와	-7982
하였기	-7983
▁갈등이	-7984
▁것임을	-7985
▁격렬한	-7986
▁과정에	-7987
▁구성원	-7988
▁규모가	-7989
▁나이에	-7990
▁다루는	-7991
▁대중의	-7992
▁등장한	-7993
▁때로는	-7994
▁만나게	-7995
▁만슈타	-7996
▁믿었다	-7997
▁별도의	-7998
▁사전에	-7999
▁시즌의	-8000
▁안중근	-8001
▁어려워	-8002
▁억원을	-8003
▁영향력	-8004
▁영화가	-8005
▁오버워	-8006
▁윤잉을	-8007
▁이유가	-8008
▁이하의	-8009
▁잡았다	-8010
▁전략을	-8011
▁정당의	-8012
▁조사에	-8013
▁최근에	-8014
▁패했다	-8015
▁항성의	-8016
▁확인할	-8017
전문학교	-8018
▁감독으로	-8019
▁나라에서	-8020
▁내놓았다	-8021
▁뮤직뱅크	-8022
▁벌어졌다	-8023
▁사이에는	-8024
▁선수들을	-8025
▁스펙트럼	-8026
▁시즌에는	-8027
▁아름다운	-8028
▁오리지널	-8029
▁올림픽은	-8030
▁인정하고	-8031
▁일본으로	-8032
▁제기했다	-8033
▁중에서는	-8034
▁중에서도	-8035
▁참여하여	-8036
▁출연하며	-8037
▁캐릭터를	-8038
▁크리스마	-8039
▁개인적으로	-8040
▁결정하였다	-8041
▁기본적으로	-8042
▁나카모리는	-8043
▁미국에서는	-8044
▁아덴하트는	-8045
▁플레이어가	-8046
▁프리스틀리는	-8047
▁겉	-8048
▁론	-8049
▁윔	-8050
기게	-8051
길을	-8052
냐고	-8053
능한	-8054
령에	-8055
론과	-8056
머리	-8057
메랄	-8058
미나	-8059
베리	-8060
부인	-8061
브는	-8062
사람	-8063
사상	-8064
수구	-8065
시설	-8066
어에	-8067
연대	-8068
일로	-8069
일에	-8070
일으	-8071
즈에	-8072
천을	-8073
청문	-8074
타임	-8075
탄을	-8076
톨레	-8077
티에	-8078
학이	-8079
한의	-8080
▁거느	-8081
▁걸린	-8082
▁고양	-8083
▁공정	-8084
▁구제	-8085
▁구호	-8086
▁김태	-8087
▁깨닫	-8088
▁내야	-8089
▁달린	-8090
▁대장	-8091
▁도요	-8092
▁마주	-8093
▁먹이	-8094
▁목탁	-8095
▁반기	-8096
▁변형	-8097
▁불어	-8098
▁삭제	-8099
▁산악	-8100
▁삶의	-8101
▁서해	-8102
▁섬의	-8103
▁수색	-8104
▁숙청	-8105
▁스쿨	-8106
▁슬램	-8107
▁시를	-8108
▁신입	-8109
▁쓰여	-8110
▁아울	-8111
▁아폴	-8112
▁앞장	-8113
▁억제	-8114
▁얻는	-8115
▁예언	-8116
▁오빠	-8117
▁오키	-8118
▁웹툰	-8119
▁이남	-8120
▁임진	-8121
▁자택	-8122
▁재난	-8123
▁전례	-8124
▁전성	-8125
▁전송	-8126
▁전승	-8127
▁전임	-8128
▁전향	-8129
▁정무	-8130
▁제약	-8131
▁조상	-8132
▁조현	-8133
▁주문	-8134
▁차전	-8135
▁추기	-8136
▁추대	-8137
▁코르	-8138
▁파라	-8139
▁표를	-8140
▁하사	-8141
▁호평	-8142
▁휴대	-8143
내에서	-8144
당으로	-8145
로서는	-8146
우스를	-8147
적이지	-8148
푸르트	-8149
회담을	-8150
▁간단한	-8151
▁갖추고	-8152
▁개봉한	-8153
▁계획에	-8154
▁과학의	-8155
▁관왕을	-8156
▁나이가	-8157
▁다음에	-8158
▁대신에	-8159
▁된다고	-8160
▁두드러	-8161
▁뒷받침	-8162
▁때에도	-8163
▁뜻으로	-8164
▁만원을	-8165
▁문화적	-8166
▁베드로	-8167
▁변화에	-8168
▁북한에	-8169
▁비판도	-8170
▁사상을	-8171
▁사용해	-8172
▁상처를	-8173
▁성폭행	-8174
▁속도가	-8175
▁않았기	-8176
▁앞바다	-8177
▁없어서	-8178
▁연구의	-8179
▁웨일스	-8180
▁음악가	-8181
▁인구는	-8182
▁잃어버	-8183
▁자기가	-8184
▁장관은	-8185
▁전체가	-8186
▁전화를	-8187
▁점이다	-8188
▁정권이	-8189
▁존재를	-8190
▁주계열	-8191
▁주변의	-8192
▁중국을	-8193
▁첫번째	-8194
▁타율을	-8195
▁테스트	-8196
▁팬들의	-8197
▁편이다	-8198
▁하나를	-8199
▁헤이즐	-8200
▁회사의	-8201
▁효과가	-8202
▁건륭제의	-8203
▁기본적인	-8204
▁다음으로	-8205
▁받았지만	-8206
▁분위기를	-8207
▁불러일으	-8208
▁사용된다	-8209
▁시리즈의	-8210
▁시절부터	-8211
▁알래스카	-8212
▁압도적인	-8213
▁연결하는	-8214
▁오디션을	-8215
▁이번에는	-8216
▁이용하는	-8217
▁정치적인	-8218
▁국가정보원	-8219
▁솔라나스는	-8220
▁이루어지는	-8221
▁이루어지지	-8222
▁콘스탄티노	-8223
▁활동하였다	-8224
▁스테고사우루	-8225
▁王	-8226
▁락	-8227
▁촌	-8228
▁콤	-8229
▁큐	-8230
개로	-8231
계로	-8232
군사	-8233
기아	-8234
내의	-8235
노는	-8236
놓은	-8237
동은	-8238
면의	-8239
명과	-8240
물과	-8241
미에	-8242
변을	-8243
병이	-8244
빈은	-8245
산에	-8246
석과	-8247
석의	-8248
설에	-8249
소수	-8250
시즌	-8251
액이	-8252
역은	-8253
였을	-8254
오를	-8255
재의	-8256
조에	-8257
조정	-8258
주기	-8259
찬은	-8260
키와	-8261
해질	-8262
해튼	-8263
훈은	-8264
▁가깝	-8265
▁가이	-8266
▁간행	-8267
▁강도	-8268
▁검색	-8269
▁고무	-8270
▁구글	-8271
▁구두	-8272
▁그저	-8273
▁나섰	-8274
▁남게	-8275
▁단층	-8276
▁담긴	-8277
▁대만	-8278
▁동독	-8279
▁때려	-8280
▁뜻의	-8281
▁레논	-8282
▁로즈	-8283
▁만났	-8284
▁무승	-8285
▁바가	-8286
▁박지	-8287
▁반해	-8288
▁발레	-8289
▁법정	-8290
▁부딪	-8291
▁부른	-8292
▁부지	-8293
▁사격	-8294
▁사다	-8295
▁사유	-8296
▁살려	-8297
▁세와	-8298
▁소통	-8299
▁수염	-8300
▁애플	-8301
▁어뢰	-8302
▁역전	-8303
▁연맹	-8304
▁오다	-8305
▁왕세	-8306
▁왜곡	-8307
▁유가	-8308
▁유신	-8309
▁유진	-8310
▁입대	-8311
▁자율	-8312
▁장남	-8313
▁전도	-8314
▁종로	-8315
▁주님	-8316
▁주식	-8317
▁지은	-8318
▁진군	-8319
▁진도	-8320
▁진지	-8321
▁차남	-8322
▁창업	-8323
▁청계	-8324
▁최순	-8325
▁카디	-8326
▁텍사	-8327
▁통틀	-8328
▁트래	-8329
▁펜실	-8330
▁편에	-8331
▁평범	-8332
▁풀려	-8333
▁피카	-8334
▁회상	-8335
기록을	-8336
령으로	-8337
면에서	-8338
블랜드	-8339
카운트	-8340
하기는	-8341
화하는	-8342
▁감독을	-8343
▁게르만	-8344
▁과거에	-8345
▁국방부	-8346
▁그래미	-8347
▁근처의	-8348
▁남기고	-8349
▁내셔널	-8350
▁노래는	-8351
▁누구나	-8352
▁도착한	-8353
▁들어간	-8354
▁들어갈	-8355
▁모델로	-8356
▁목적은	-8357
▁바꾸어	-8358
▁받아야	-8359
▁방영된	-8360
▁본인이	-8361
▁부대의	-8362
▁빠져나	-8363
▁상태를	-8364
▁새로이	-8365
▁손가락	-8366
▁수상한	-8367
▁스크린	-8368
▁신청을	-8369
▁아마도	-8370
▁약간의	-8371
▁얼굴을	-8372
▁우연히	-8373
▁원인은	-8374
▁의문을	-8375
▁의회의	-8376
▁이외의	-8377
▁작업이	-8378
▁중국이	-8379
▁중반에	-8380
▁지적이	-8381
▁차이로	-8382
▁초점을	-8383
▁최후의	-8384
▁치료를	-8385
▁타이완	-8386
▁특징을	-8387
▁학교에	-8388
▁행동에	-8389
▁황제는	-8390
▁회의를	-8391
▁거부했다	-8392
▁그러면서	-8393
▁기록하고	-8394
▁기록하는	-8395
▁바뀌었다	-8396
▁받았는데	-8397
▁보헤미아	-8398
▁사람에게	-8399
▁서비스를	-8400
▁서울중앙	-8401
▁설명하는	-8402
▁스마트폰	-8403
▁시작된다	-8404
▁않는다고	-8405
▁어머니가	-8406
▁어시스트	-8407
▁예정이다	-8408
▁요미우리	-8409
▁이때부터	-8410
▁이야기는	-8411
▁일어나지	-8412
▁일이었다	-8413
▁조선일보	-8414
▁차지하며	-8415
▁챔피언십	-8416
▁커뮤니티	-8417
▁공개되었다	-8418
▁나폴레옹은	-8419
▁대통령으로	-8420
▁대한민국은	-8421
▁실패하였다	-8422
▁조선대학교	-8423
▁플레이어는	-8424
▁아우구스투스	-8425
▁三	-8426
▁小	-8427
▁굽	-8428
▁챈	-8429
▁햇	-8430
가게	-8431
결과	-8432
국인	-8433
규칙	-8434
니에	-8435
마와	-8436
목의	-8437
박을	-8438
상대	-8439
생산	-8440
수용	-8441
슈테	-8442
신혜	-8443
연이	-8444
음의	-8445
진에	-8446
짜리	-8447
체제	-8448
출을	-8449
치와	-8450
토가	-8451
환이	-8452
황을	-8453
▁개량	-8454
▁경유	-8455
▁고객	-8456
▁고고	-8457
▁곳은	-8458
▁곳이	-8459
▁김현	-8460
▁달아	-8461
▁당대	-8462
▁릴번	-8463
▁마그	-8464
▁만달	-8465
▁말라	-8466
▁모자	-8467
▁묻는	-8468
▁미드	-8469
▁바닷	-8470
▁발을	-8471
▁볼넷	-8472
▁북극	-8473
▁불복	-8474
▁사육	-8475
▁사항	-8476
▁상인	-8477
▁상임	-8478
▁설문	-8479
▁소셜	-8480
▁수락	-8481
▁시가	-8482
▁시화	-8483
▁식량	-8484
▁쓰레	-8485
▁알레	-8486
▁없던	-8487
▁에클	-8488
▁옛날	-8489
▁요인	-8490
▁우수	-8491
▁월간	-8492
▁응용	-8493
▁의장	-8494
▁이종	-8495
▁인명	-8496
▁일각	-8497
▁임기	-8498
▁적지	-8499
▁전제	-8500
▁전진	-8501
▁제의	-8502
▁조에	-8503
▁채로	-8504
▁챈들	-8505
▁축하	-8506
▁충족	-8507
▁치러	-8508
▁탑승	-8509
▁피츠	-8510
▁해설	-8511
▁후의	-8512
간으로	-8513
비서관	-8514
스티벌	-8515
시키며	-8516
이라면	-8517
자들에	-8518
정부의	-8519
지역의	-8520
▁가문의	-8521
▁개최된	-8522
▁거뒀다	-8523
▁거리가	-8524
▁경력을	-8525
▁균형을	-8526
▁기회가	-8527
▁나오고	-8528
▁나이트	-8529
▁드루킹	-8530
▁마스는	-8531
▁말미암	-8532
▁맨해튼	-8533
▁모았다	-8534
▁문화의	-8535
▁미스터	-8536
▁밝혔고	-8537
▁방향을	-8538
▁비공식	-8539
▁사단은	-8540
▁삼았다	-8541
▁성격이	-8542
▁손해배	-8543
▁시드니	-8544
▁시에서	-8545
▁아유는	-8546
▁언급한	-8547
▁여행을	-8548
▁요청을	-8549
▁위기를	-8550
▁유태인	-8551
▁이산화	-8552
▁인구가	-8553
▁인상을	-8554
▁일이다	-8555
▁입지를	-8556
▁있는지	-8557
▁작업에	-8558
▁작품이	-8559
▁잡아먹	-8560
▁점수를	-8561
▁정신을	-8562
▁중국에	-8563
▁지도를	-8564
▁질량이	-8565
▁책임이	-8566
▁초반에	-8567
▁한계가	-8568
▁합의를	-8569
▁허위사	-8570
▁협력을	-8571
▁활동은	-8572
▁가리키는	-8573
▁광범위한	-8574
▁국무총리	-8575
▁김연아는	-8576
▁동아시아	-8577
▁되었다는	-8578
▁되었지만	-8579
▁민주당은	-8580
▁비난했다	-8581
▁시점에서	-8582
▁시칠리아	-8583
▁옹정제의	-8584
▁자유로운	-8585
▁출신으로	-8586
▁치명적인	-8587
▁터브먼은	-8588
▁표현했다	-8589
▁활동하고	-8590
▁공개적으로	-8591
▁설명하였다	-8592
▁조선인민군	-8593
▁줄어들었다	-8594
▁클리블랜드	-8595
▁트레이드를	-8596
▁東	-8597
▁곁	-8598
▁넷	-8599
▁젖	-8600
▁펠	-8601
▁휠	-8602
견을	-8603
고속	-8604
곡은	-8605
골로	-8606
교는	-8607
금지	-8608
기능	-8609
니즘	-8610
대사	-8611
디난	-8612
렀고	-8613
료로	-8614
모노	-8615
방이	-8616
보기	-8617
비와	-8618
사르	-8619
세스	-8620
속한	-8621
심리	-8622
야의	-8623
연기	-8624
위해	-8625
으신	-8626
이한	-8627
있고	-8628
큰롤	-8629
택근	-8630
터와	-8631
해온	-8632
▁가고	-8633
▁가시	-8634
▁감금	-8635
▁개성	-8636
▁공군	-8637
▁공적	-8638
▁금강	-8639
▁김광	-8640
▁나름	-8641
▁남서	-8642
▁녹색	-8643
▁농촌	-8644
▁누적	-8645
▁대거	-8646
▁돌입	-8647
▁라그	-8648
▁말의	-8649
▁맞붙	-8650
▁무안	-8651
▁문자	-8652
▁민감	-8653
▁바꾼	-8654
▁백제	-8655
▁병행	-8656
▁비핵	-8657
▁신임	-8658
▁신장	-8659
▁신하	-8660
▁쓰인	-8661
▁에인	-8662
▁엑스	-8663
▁엔지	-8664
▁여의	-8665
▁영광	-8666
▁오가	-8667
▁유배	-8668
▁의결	-8669
▁이리	-8670
▁이인	-8671
▁자랑	-8672
▁장난	-8673
▁장학	-8674
▁제재	-8675
▁종결	-8676
▁주행	-8677
▁지침	-8678
▁직면	-8679
▁진주	-8680
▁쫓겨	-8681
▁채무	-8682
▁처럼	-8683
▁체중	-8684
▁최저	-8685
▁충성	-8686
▁취약	-8687
▁침해	-8688
▁타당	-8689
▁토착	-8690
▁통보	-8691
▁통행	-8692
▁폭격	-8693
▁한계	-8694
▁해소	-8695
▁협조	-8696
공학과	-8697
나라의	-8698
대에서	-8699
들보다	-8700
시리즈	-8701
직에서	-8702
하에서	-8703
하였을	-8704
화국의	-8705
▁갈수록	-8706
▁걸렸다	-8707
▁고통을	-8708
▁국경을	-8709
▁국내외	-8710
▁그다지	-8711
▁느꼈다	-8712
▁느낌을	-8713
▁당하고	-8714
▁도호쿠	-8715
▁동명의	-8716
▁동영상	-8717
▁되돌아	-8718
▁로큰롤	-8719
▁리스트	-8720
▁만명의	-8721
▁미국인	-8722
▁미래의	-8723
▁밀접한	-8724
▁방식은	-8725
▁베리는	-8726
▁부르며	-8727
▁브라우	-8728
▁브라이	-8729
▁브래드	-8730
▁사실에	-8731
▁설명할	-8732
▁스톤은	-8733
▁승인을	-8734
▁시작해	-8735
▁신들의	-8736
▁실패한	-8737
▁아이템	-8738
▁여동생	-8739
▁연방의	-8740
▁영향이	-8741
▁오르는	-8742
▁이라크	-8743
▁인사를	-8744
▁인증을	-8745
▁일요일	-8746
▁작곡가	-8747
▁전체에	-8748
▁제작에	-8749
▁제주도	-8750
▁존재가	-8751
▁주에서	-8752
▁중심의	-8753
▁증거가	-8754
▁지식을	-8755
▁지키기	-8756
▁차례에	-8757
▁참가를	-8758
▁촬영을	-8759
▁치러진	-8760
▁통일을	-8761
▁파시즘	-8762
▁페이지	-8763
▁하와이	-8764
▁형식의	-8765
▁훌린은	-8766
위원회가	-8767
크라이나	-8768
▁공화국의	-8769
▁기록하여	-8770
▁노무현은	-8771
▁바이에른	-8772
▁비잔티움	-8773
▁상징하는	-8774
▁안철수는	-8775
▁에클스턴	-8776
▁여기에서	-8777
▁연구에서	-8778
▁위원회는	-8779
▁의미하는	-8780
▁이루었다	-8781
▁인정하지	-8782
▁자유롭게	-8783
▁장기하와	-8784
▁추정된다	-8785
▁출연하여	-8786
▁프랑스와	-8787
▁대한민국에	-8788
▁데뷔하였다	-8789
▁디스플레이	-8790
▁사용하였다	-8791
▁엘리자베스	-8792
▁적용되었다	-8793
▁진행하였다	-8794
▁룬	-8795
▁벼	-8796
▁찢	-8797
▁챙	-8798
▁탕	-8799
▁펴	-8800
▁헐	-8801
감사	-8802
감에	-8803
공산	-8804
구려	-8805
글로	-8806
끄러	-8807
는가	-8808
대지	-8809
데스	-8810
동원	-8811
둥이	-8812
라브	-8813
레가	-8814
레나	-8815
르기	-8816
르카	-8817
리즘	-8818
믹스	-8819
병의	-8820
사리	-8821
산염	-8822
선언	-8823
수수	-8824
시장	-8825
신당	-8826
심히	-8827
야구	-8828
열은	-8829
영향	-8830
오가	-8831
우며	-8832
워서	-8833
위반	-8834
작을	-8835
전선	-8836
지마	-8837
쪽의	-8838
처리	-8839
케라	-8840
터가	-8841
테르	-8842
토는	-8843
토록	-8844
토를	-8845
트루	-8846
팀의	-8847
학회	-8848
▁가볍	-8849
▁가즈	-8850
▁가축	-8851
▁각본	-8852
▁감안	-8853
▁강등	-8854
▁개교	-8855
▁과반	-8856
▁구로	-8857
▁끌고	-8858
▁낙선	-8859
▁내무	-8860
▁단위	-8861
▁드럼	-8862
▁등극	-8863
▁막아	-8864
▁먹는	-8865
▁먹을	-8866
▁모른	-8867
▁몬테	-8868
▁무용	-8869
▁무효	-8870
▁문건	-8871
▁발족	-8872
▁변신	-8873
▁봉쇄	-8874
▁부하	-8875
▁비가	-8876
▁비달	-8877
▁뿌리	-8878
▁사제	-8879
▁성남	-8880
▁수반	-8881
▁스태	-8882
▁승려	-8883
▁시라	-8884
▁심의	-8885
▁싱가	-8886
▁씨는	-8887
▁알지	-8888
▁애국	-8889
▁야기	-8890
▁야전	-8891
▁여당	-8892
▁옮긴	-8893
▁웃음	-8894
▁원의	-8895
▁위임	-8896
▁이경	-8897
▁이석	-8898
▁입각	-8899
▁잡혀	-8900
▁재능	-8901
▁저질	-8902
▁점성	-8903
▁점프	-8904
▁정동	-8905
▁제후	-8906
▁조롱	-8907
▁중추	-8908
▁지미	-8909
▁질문	-8910
▁집어	-8911
▁초과	-8912
▁총애	-8913
▁출루	-8914
▁측에	-8915
▁탁월	-8916
▁토너	-8917
▁파기	-8918
▁파트	-8919
▁패한	-8920
▁편찬	-8921
▁학사	-8922
▁해금	-8923
▁해를	-8924
▁해주	-8925
▁현역	-8926
▁호칭	-8927
▁훌린	-8928
들었다	-8929
받는다	-8930
분으로	-8931
산으로	-8932
심으로	-8933
평론가	-8934
프라이	-8935
학교에	-8936
해지는	-8937
회의에	-8938
▁감정을	-8939
▁게임은	-8940
▁겪었다	-8941
▁공세를	-8942
▁나뉘어	-8943
▁논쟁이	-8944
▁늑대를	-8945
▁달라고	-8946
▁동안의	-8947
▁동일본	-8948
▁들어온	-8949
▁똑같은	-8950
▁로마로	-8951
▁먹이가	-8952
▁명칭을	-8953
▁무조건	-8954
▁민족의	-8955
▁발매한	-8956
▁밝히고	-8957
▁부문에	-8958
▁불리며	-8959
▁사용을	-8960
▁선거에	-8961
▁성향의	-8962
▁수록된	-8963
▁시마네	-8964
▁쓰이는	-8965
▁아마루	-8966
▁아파트	-8967
▁않다고	-8968
▁여름에	-8969
▁연평도	-8970
▁영역을	-8971
▁올리는	-8972
▁원로원	-8973
▁원인을	-8974
▁유래한	-8975
▁음악은	-8976
▁이론에	-8977
▁이택근	-8978
▁인물로	-8979
▁일본과	-8980
▁자신도	-8981
▁전략적	-8982
▁전역에	-8983
▁존재할	-8984
▁종교의	-8985
▁주년을	-8986
▁주제가	-8987
▁지었다	-8988
▁특성을	-8989
▁파운드	-8990
▁패배를	-8991
▁폼페이	-8992
▁표면에	-8993
▁하겠다	-8994
▁하다가	-8995
▁학위를	-8996
▁현장에	-8997
▁휘하의	-8998
계에서는	-8999
했습니다	-9000
▁것입니다	-9001
▁국민들의	-9002
▁나타내는	-9003
▁내부에서	-9004
▁담당하는	-9005
▁명목으로	-9006
▁사용되는	-9007
▁설명하고	-9008
▁시민들의	-9009
▁시스템을	-9010
▁알려지지	-9011
▁어려움을	-9012
▁엠카운트	-9013
▁연결되어	-9014
▁운영하고	-9015
▁자유한국	-9016
▁제시했다	-9017
▁제외하면	-9018
▁지속적인	-9019
▁페르디난	-9020
▁페스티벌	-9021
▁프랑스가	-9022
▁학교에서	-9023
▁학생들을	-9024
▁결승전에서	-9025
▁받아들였다	-9026
▁방영되었다	-9027
▁부분적으로	-9028
▁선출되었다	-9029
▁시작하였고	-9030
▁아카데미상	-9031
▁오카자키는	-9032
▁우크라이나	-9033
▁월드컵에서	-9034
▁정치적으로	-9035
▁카스트로는	-9036
▁엠카운트다운	-9037
▁밟	-9038
▁섀	-9039
▁읍	-9040
▁찌	-9041
▁틸	-9042
간을	-9043
것을	-9044
구치	-9045
나를	-9046
네이	-9047
동지	-9048
류에	-9049
매를	-9050
버린	-9051
법과	-9052
보이	-9053
분과	-9054
브를	-9055
슬러	-9056
우로	-9057
임은	-9058
자연	-9059
적에	-9060
절이	-9061
져서	-9062
중인	-9063
지검	-9064
지휘	-9065
질로	-9066
처분	-9067
타고	-9068
텐츠	-9069
투를	-9070
팀은	-9071
하러	-9072
해양	-9073
협력	-9074
▁가죽	-9075
▁감지	-9076
▁개화	-9077
▁것일	-9078
▁격퇴	-9079
▁고백	-9080
▁구명	-9081
▁꺾고	-9082
▁낮아	-9083
▁넘게	-9084
▁늦게	-9085
▁다름	-9086
▁다큐	-9087
▁독도	-9088
▁등재	-9089
▁디오	-9090
▁루타	-9091
▁마녀	-9092
▁말로	-9093
▁모래	-9094
▁모집	-9095
▁목을	-9096
▁무쓰	-9097
▁법조	-9098
▁부가	-9099
▁부수	-9100
▁붙어	-9101
▁비타	-9102
▁빌려	-9103
▁빛을	-9104
▁빨간	-9105
▁사도	-9106
▁산다	-9107
▁서재	-9108
▁선구	-9109
▁선생	-9110
▁세로	-9111
▁송신	-9112
▁신규	-9113
▁신학	-9114
▁실력	-9115
▁씨가	-9116
▁아테	-9117
▁안의	-9118
▁알바	-9119
▁암시	-9120
▁앤디	-9121
▁역에	-9122
▁연고	-9123
▁연봉	-9124
▁외의	-9125
▁이가	-9126
▁인생	-9127
▁인재	-9128
▁인증	-9129
▁입는	-9130
▁입성	-9131
▁잇는	-9132
▁잘라	-9133
▁잡은	-9134
▁재편	-9135
▁적어	-9136
▁적을	-9137
▁전리	-9138
▁전선	-9139
▁조명	-9140
▁조석	-9141
▁조언	-9142
▁종전	-9143
▁죽기	-9144
▁줄어	-9145
▁중장	-9146
▁진상	-9147
▁창출	-9148
▁추종	-9149
▁측이	-9150
▁친선	-9151
▁클로	-9152
▁타워	-9153
▁포의	-9154
▁해저	-9155
▁후안	-9156
리라는	-9157
서에서	-9158
선수권	-9159
시스템	-9160
신으로	-9161
이어서	-9162
전부터	-9163
즈에서	-9164
하기가	-9165
하이머	-9166
하자는	-9167
하지도	-9168
해진다	-9169
▁가수가	-9170
▁갈등을	-9171
▁게이오	-9172
▁계약의	-9173
▁공격이	-9174
▁교황의	-9175
▁국가에	-9176
▁근거가	-9177
▁기여를	-9178
▁끌어올	-9179
▁넘어서	-9180
▁노태우	-9181
▁뉴욕의	-9182
▁대단히	-9183
▁도덕적	-9184
▁등이다	-9185
▁따르는	-9186
▁라이언	-9187
▁맥그리	-9188
▁먹는다	-9189
▁모두가	-9190
▁문제와	-9191
▁물리적	-9192
▁물질이	-9193
▁미쳤다	-9194
▁박신혜	-9195
▁밝히며	-9196
▁방식의	-9197
▁부대를	-9198
▁부르주	-9199
▁부통령	-9200
▁북한군	-9201
▁분야에	-9202
▁비정규	-9203
▁사고를	-9204
▁사태를	-9205
▁생기는	-9206
▁서울대	-9207
▁선발로	-9208
▁성장을	-9209
▁소리가	-9210
▁속한다	-9211
▁스타는	-9212
▁실시한	-9213
▁싸움을	-9214
▁아래에	-9215
▁아스널	-9216
▁않다는	-9217
▁앨범에	-9218
▁엄격한	-9219
▁역에서	-9220
▁연기한	-9221
▁영화로	-9222
▁오페라	-9223
▁요소가	-9224
▁우려가	-9225
▁워드는	-9226
▁이래로	-9227
▁이상한	-9228
▁정권에	-9229
▁조직이	-9230
▁죽이고	-9231
▁중간에	-9232
▁지구를	-9233
▁직전에	-9234
▁집정관	-9235
▁차지한	-9236
▁찬사를	-9237
▁찾아볼	-9238
▁체계를	-9239
▁타이거	-9240
▁패러디	-9241
▁표현을	-9242
▁합니다	-9243
▁혁명의	-9244
▁황제를	-9245
▁획득한	-9246
기보다는	-9247
▁국가에서	-9248
▁말미암아	-9249
▁머물렀다	-9250
▁미사일을	-9251
▁선언했다	-9252
▁않았다는	-9253
▁않았으나	-9254
▁없었으며	-9255
▁유길준은	-9256
▁인사청문	-9257
▁정상적인	-9258
▁정상회담	-9259
▁제공하는	-9260
▁최고위원	-9261
▁최근에는	-9262
▁특징이다	-9263
▁해결하기	-9264
▁현장에서	-9265
▁결정되었다	-9266
▁기자회견을	-9267
▁발표되었다	-9268
▁이루어지고	-9269
▁자발적으로	-9270
▁직접적으로	-9271
▁프랑크푸르트	-9272
▁대한민국에서는	-9273
▁2	-9274
▁괜	-9275
▁펄	-9276
가요	-9277
감과	-9278
구역	-9279
끔찍	-9280
나르	-9281
내지	-9282
님이	-9283
더맨	-9284
드르	-9285
들리	-9286
들여	-9287
리라	-9288
리쿠	-9289
립을	-9290
모가	-9291
번호	-9292
색의	-9293
세요	-9294
수인	-9295
쉽게	-9296
자고	-9297
자나	-9298
자도	-9299
장관	-9300
쟁이	-9301
정상	-9302
종목	-9303
지던	-9304
천년	-9305
초가	-9306
층을	-9307
친구	-9308
쿠버	-9309
터를	-9310
트니	-9311
▁가공	-9312
▁가열	-9313
▁강행	-9314
▁곳의	-9315
▁공장	-9316
▁광해	-9317
▁군을	-9318
▁그랑	-9319
▁기각	-9320
▁기를	-9321
▁깃털	-9322
▁나고	-9323
▁낙하	-9324
▁날려	-9325
▁담겨	-9326
▁도쿠	-9327
▁라스	-9328
▁만남	-9329
▁많고	-9330
▁맥아	-9331
▁모인	-9332
▁몸이	-9333
▁무선	-9334
▁무척	-9335
▁물건	-9336
▁반월	-9337
▁발굴	-9338
▁버스	-9339
▁번에	-9340
▁보증	-9341
▁부는	-9342
▁불명	-9343
▁불태	-9344
▁불행	-9345
▁비주	-9346
▁빈곤	-9347
▁센티	-9348
▁소극	-9349
▁숨겨	-9350
▁시점	-9351
▁신념	-9352
▁실려	-9353
▁실무	-9354
▁쓰지	-9355
▁안창	-9356
▁양유	-9357
▁얘기	-9358
▁에버	-9359
▁엽록	-9360
▁오해	-9361
▁유망	-9362
▁의상	-9363
▁이소	-9364
▁이슈	-9365
▁자매	-9366
▁재활	-9367
▁적혀	-9368
▁전철	-9369
▁점유	-9370
▁접수	-9371
▁주택	-9372
▁지름	-9373
▁진정	-9374
▁집합	-9375
▁척추	-9376
▁춤을	-9377
▁층에	-9378
▁칼륨	-9379
▁타일	-9380
▁퇴적	-9381
▁패널	-9382
▁폰티	-9383
▁폴리	-9384
▁하우	-9385
▁화폐	-9386
▁흥선	-9387
되지는	-9388
럼비아	-9389
력발전	-9390
방에서	-9391
방으로	-9392
왔으며	-9393
이었을	-9394
주의에	-9395
화하여	-9396
▁같다고	-9397
▁개발한	-9398
▁것인지	-9399
▁과정이	-9400
▁국가를	-9401
▁그만큼	-9402
▁근대적	-9403
▁글로벌	-9404
▁기대를	-9405
▁기존에	-9406
▁나이로	-9407
▁네이버	-9408
▁년동안	-9409
▁느끼게	-9410
▁단어는	-9411
▁대표가	-9412
▁도널드	-9413
▁동원해	-9414
▁마이크	-9415
▁멜로디	-9416
▁명칭은	-9417
▁목적을	-9418
▁무리가	-9419
▁발생할	-9420
▁방송사	-9421
▁배우로	-9422
▁부정적	-9423
▁브리핑	-9424
▁비서실	-9425
▁새끼를	-9426
▁샌프란	-9427
▁생각에	-9428
▁성질을	-9429
▁세계대	-9430
▁세에게	-9431
▁소속된	-9432
▁소재로	-9433
▁순수한	-9434
▁스티브	-9435
▁시작할	-9436
▁쓰나미	-9437
▁안전을	-9438
▁연이어	-9439
▁열심히	-9440
▁영상을	-9441
▁옮겼다	-9442
▁위권에	-9443
▁전쟁은	-9444
▁전투는	-9445
▁정책의	-9446
▁제의를	-9447
▁조사한	-9448
▁중국과	-9449
▁중심핵	-9450
▁참가한	-9451
▁철저히	-9452
▁체제로	-9453
▁측에서	-9454
▁타일러	-9455
▁트랜스	-9456
▁편성은	-9457
▁프레드	-9458
▁하기로	-9459
▁홈페이	-9460
▁환경에	-9461
대학으로	-9462
되었다가	-9463
▁거부하고	-9464
▁근처에서	-9465
▁레닌그라	-9466
▁르네상스	-9467
▁받았으나	-9468
▁방송에서	-9469
▁부문에서	-9470
▁생활수준	-9471
▁소속으로	-9472
▁수상하며	-9473
▁올림픽에	-9474
▁일어난다	-9475
▁있어서는	-9476
▁정도이다	-9477
▁칼리스토	-9478
▁파견하여	-9479
▁포함하고	-9480
▁포함하는	-9481
▁프로듀싱	-9482
▁한반도의	-9483
▁구체적으로	-9484
▁시상식에서	-9485
▁일본에서는	-9486
▁자연스럽게	-9487
▁크리스토퍼	-9488
▁샌프란시스코	-9489
▁오스트리아의	-9490
▁프로그램에서	-9491
▁프리드리히는	-9492
▁前	-9493
▁高	-9494
▁뻔	-9495
▁옵	-9496
▁첼	-9497
▁콰	-9498
▁쿨	-9499
계급	-9500
등의	-9501
르지	-9502
면이	-9503
모는	-9504
민은	-9505
벌을	-9506
벽을	-9507
분극	-9508
션이	-9509
스텔	-9510
아이	-9511
야만	-9512
열에	-9513
왕이	-9514
유예	-9515
있게	-9516
잡이	-9517
절한	-9518
정도	-9519
정지	-9520
청에	-9521
츠의	-9522
태후	-9523
토미	-9524
통제	-9525
판의	-9526
해는	-9527
혹한	-9528
▁간다	-9529
▁고속	-9530
▁공원	-9531
▁공이	-9532
▁그릴	-9533
▁끔찍	-9534
▁끝날	-9535
▁나갈	-9536
▁납부	-9537
▁내리	-9538
▁년도	-9539
▁년은	-9540
▁높게	-9541
▁단기	-9542
▁돈이	-9543
▁뒤집	-9544
▁막는	-9545
▁매진	-9546
▁메달	-9547
▁명시	-9548
▁명인	-9549
▁모바	-9550
▁민정	-9551
▁발홀	-9552
▁밤에	-9553
▁방침	-9554
▁배틀	-9555
▁병합	-9556
▁분출	-9557
▁불평	-9558
▁비리	-9559
▁비하	-9560
▁빌딩	-9561
▁삼고	-9562
▁선조	-9563
▁수능	-9564
▁수수	-9565
▁수호	-9566
▁순환	-9567
▁신전	-9568
▁약물	-9569
▁양이	-9570
▁연계	-9571
▁와일	-9572
▁외곽	-9573
▁원반	-9574
▁원시	-9575
▁이단	-9576
▁이윤	-9577
▁일조	-9578
▁있음	-9579
▁자진	-9580
▁재건	-9581
▁재배	-9582
▁전의	-9583
▁정립	-9584
▁조항	-9585
▁주가	-9586
▁주거	-9587
▁줄곧	-9588
▁중도	-9589
▁증대	-9590
▁지출	-9591
▁진경	-9592
▁집결	-9593
▁찍은	-9594
▁최하	-9595
▁추락	-9596
▁추신	-9597
▁출산	-9598
▁친척	-9599
▁카드	-9600
▁콘크	-9601
▁타자	-9602
▁태평	-9603
▁팀에	-9604
▁파란	-9605
▁파업	-9606
▁파티	-9607
▁페더	-9608
▁평생	-9609
▁품고	-9610
▁피를	-9611
▁피부	-9612
▁합작	-9613
▁해고	-9614
▁해제	-9615
▁헤라	-9616
▁현행	-9617
▁휴전	-9618
됐으며	-9619
들이다	-9620
때문에	-9621
라고도	-9622
란드는	-9623
레스의	-9624
렸다고	-9625
밀하게	-9626
베르트	-9627
색으로	-9628
석에서	-9629
임에도	-9630
케이션	-9631
파니아	-9632
프랑스	-9633
▁가라앉	-9634
▁가량의	-9635
▁가리온	-9636
▁가진다	-9637
▁같았다	-9638
▁견해를	-9639
▁경제의	-9640
▁공격할	-9641
▁공사를	-9642
▁교육과	-9643
▁국회에	-9644
▁군대의	-9645
▁년으로	-9646
▁노선영	-9647
▁놀라운	-9648
▁누구도	-9649
▁니체의	-9650
▁다큐멘	-9651
▁답했다	-9652
▁라이벌	-9653
▁레이디	-9654
▁목표는	-9655
▁반응이	-9656
▁발표된	-9657
▁방문해	-9658
▁보내고	-9659
▁보유한	-9660
▁보호를	-9661
▁본인의	-9662
▁사기가	-9663
▁새천년	-9664
▁서울의	-9665
▁선택할	-9666
▁승리한	-9667
▁시간은	-9668
▁심하게	-9669
▁싸우는	-9670
▁아울러	-9671
▁얘기를	-9672
▁역사의	-9673
▁역할이	-9674
▁연예인	-9675
▁영원히	-9676
▁외야수	-9677
▁위험을	-9678
▁윤잉이	-9679
▁이닝을	-9680
▁작곡한	-9681
▁장면이	-9682
▁재판을	-9683
▁정치의	-9684
▁주연을	-9685
▁주위를	-9686
▁준우승	-9687
▁지금도	-9688
▁진출에	-9689
▁참여할	-9690
▁채널을	-9691
▁최소화	-9692
▁취하고	-9693
▁친구인	-9694
▁텍사스	-9695
▁트럼프	-9696
▁플라티	-9697
▁현실을	-9698
▁황제로	-9699
▁후보자	-9700
됨으로써	-9701
적이라고	-9702
▁가족들은	-9703
▁강력하게	-9704
▁거치면서	-9705
▁관점에서	-9706
▁년대부터	-9707
▁늘어났다	-9708
▁목탁수구	-9709
▁바이러스	-9710
▁박정희가	-9711
▁병원에서	-9712
▁보여주고	-9713
▁비슷하다	-9714
▁사랑하는	-9715
▁선수들은	-9716
▁설치하고	-9717
▁성적으로	-9718
▁센티미터	-9719
▁스타디움	-9720
▁시도했다	-9721
▁아무것도	-9722
▁여기에는	-9723
▁요청했다	-9724
▁원내대표	-9725
▁원작으로	-9726
▁전달했다	-9727
▁전해진다	-9728
▁중요성을	-9729
▁증가했다	-9730
▁지원하는	-9731
▁출전했다	-9732
▁하였지만	-9733
▁허리케인	-9734
▁대표적으로	-9735
▁대한민국을	-9736
▁변경되었다	-9737
▁전체적으로	-9738
▁제외하고는	-9739
▁카이사르의	-9740
▁프랑스군은	-9741
인민공화국의	-9742
▁뮤직비디오는	-9743
▁새정치민주연합	-9744
▁곰	-9745
▁낫	-9746
▁맵	-9747
▁뭐	-9748
▁씌	-9749
▁픽	-9750
간이	-9751
게는	-9752
교로	-9753
니와	-9754
러리	-9755
레를	-9756
루는	-9757
마로	-9758
망이	-9759
몬드	-9760
민당	-9761
박물	-9762
박이	-9763
번에	-9764
블로	-9765
사고	-9766
살을	-9767
세와	-9768
속을	-9769
스런	-9770
시절	-9771
연수	-9772
우와	-9773
우지	-9774
운을	-9775
이즈	-9776
제품	-9777
져야	-9778
천히	-9779
취를	-9780
칸센	-9781
커는	-9782
토리	-9783
풀이	-9784
한을	-9785
함은	-9786
현실	-9787
형과	-9788
희의	-9789
히게	-9790
▁가동	-9791
▁가창	-9792
▁간호	-9793
▁갑옷	-9794
▁갱신	-9795
▁격렬	-9796
▁경과	-9797
▁곤충	-9798
▁공의	-9799
▁관통	-9800
▁괴롭	-9801
▁권위	-9802
▁규명	-9803
▁근접	-9804
▁김아	-9805
▁끝이	-9806
▁나도	-9807
▁노트	-9808
▁놓여	-9809
▁뇌물	-9810
▁다를	-9811
▁달렉	-9812
▁대지	-9813
▁동요	-9814
▁동위	-9815
▁드문	-9816
▁땅에	-9817
▁래퍼	-9818
▁로봇	-9819
▁룬트	-9820
▁마시	-9821
▁마약	-9822
▁많지	-9823
▁박도	-9824
▁백색	-9825
▁베니	-9826
▁보게	-9827
▁복사	-9828
▁부처	-9829
▁분은	-9830
▁불이	-9831
▁사극	-9832
▁산성	-9833
▁살던	-9834
▁살의	-9835
▁상반	-9836
▁서기	-9837
▁서정	-9838
▁설이	-9839
▁성별	-9840
▁손상	-9841
▁스승	-9842
▁신중	-9843
▁아라	-9844
▁아크	-9845
▁안티	-9846
▁알을	-9847
▁약혼	-9848
▁어니	-9849
▁어찌	-9850
▁왕실	-9851
▁요격	-9852
▁월과	-9853
▁위인	-9854
▁유산	-9855
▁유재	-9856
▁응원	-9857
▁이건	-9858
▁이렇	-9859
▁일삼	-9860
▁입당	-9861
▁입문	-9862
▁입헌	-9863
▁있겠	-9864
▁자의	-9865
▁작고	-9866
▁장병	-9867
▁장원	-9868
▁제압	-9869
▁좌측	-9870
▁착공	-9871
▁참조	-9872
▁창의	-9873
▁창작	-9874
▁체험	-9875
▁충남	-9876
▁치안	-9877
▁침투	-9878
▁카메	-9879
▁컸다	-9880
▁케네	-9881
▁케임	-9882
▁탄소	-9883
▁투옥	-9884
▁파생	-9885
▁팔꿈	-9886
▁펼쳤	-9887
▁평민	-9888
▁포도	-9889
▁프린	-9890
▁피고	-9891
▁피신	-9892
▁하트	-9893
▁항해	-9894
▁헌정	-9895
▁헤르	-9896
▁헬륨	-9897
▁회에	-9898
▁흥분	-9899
▁희극	-9900
권으로	-9901
놓았다	-9902
스트라	-9903
어지고	-9904
왔는데	-9905
으로도	-9906
으로의	-9907
자이자	-9908
제도를	-9909
조사를	-9910
카이도	-9911
페이지	-9912
해왔다	-9913
해주는	-9914
▁가벼운	-9915
▁거기서	-9916
▁건물을	-9917
▁것이기	-9918
▁게임이	-9919
▁공격은	-9920
▁공사가	-9921
▁관계로	-9922
▁그룹의	-9923
▁극심한	-9924
▁기술의	-9925
▁기술이	-9926
▁기초로	-9927
▁길이는	-9928
▁나가는	-9929
▁녹음을	-9930
▁높으신	-9931
▁달했다	-9932
▁당사자	-9933
▁대책을	-9934
▁덧붙여	-9935
▁디트로	-9936
▁따뜻한	-9937
▁뜨거운	-9938
▁리그의	-9939
▁마르코	-9940
▁마쓰에	-9941
▁말까지	-9942
▁말레이	-9943
▁모른다	-9944
▁목소리	-9945
▁묘사한	-9946
▁밀라노	-9947
▁반응은	-9948
▁방송된	-9949
▁번이나	-9950
▁법원은	-9951
▁별도로	-9952
▁보였고	-9953
▁분노를	-9954
▁블로그	-9955
▁사고가	-9956
▁생명의	-9957
▁서재필	-9958
▁설명을	-9959
▁속으로	-9960
▁스톤을	-9961
▁시티는	-9962
▁신호를	-9963
▁알리는	-9964
▁없었기	-9965
▁여론이	-9966
▁연구소	-9967
▁우수한	-9968
▁음악이	-9969
▁이론의	-9970
▁이정희	-9971
▁일자리	-9972
▁일주일	-9973
▁장이머	-9974
▁점으로	-9975
▁접어들	-9976
▁정상을	-9977
▁제출한	-9978
▁주도한	-9979
▁중이다	-9980
▁천천히	-9981
▁카운티	-9982
▁타자로	-9983
▁토르는	-9984
▁판정을	-9985
▁평화를	-9986
▁프라이	-9987
▁해운대	-9988
▁혁명을	-9989
▁형태가	-9990
▁흥미를	-9991
대회에서	-9992
시켰으며	-9993
▁강희제가	-9994
▁개인적인	-9995
▁것이므로	-9996
▁공개했다	-9997
▁대학에서	-9998
▁동원하여	-9999
▁러시아와	-10000
▁룬트슈테	-10001
▁비판하는	-10002
▁사라졌다	-10003
▁사용하지	-10004
▁서식하는	-10005
▁신인상을	-10006
▁아니지만	-10007
▁아마루베	-10008
▁않았는데	-10009
▁이전부터	-10010
▁일으키는	-10011
▁조사에서	-10012
▁조성민의	-10013
▁중앙정보	-10014
▁천문학자	-10015
▁총학생회	-10016
▁최진실이	-10017
▁파시스트	-10018
▁패하였다	-10019
▁해당한다	-10020
▁회의에서	-10021
▁디트로이트	-10022
▁북아일랜드	-10023
▁성공하였다	-10024
▁소녀시대는	-10025
▁시작했으며	-10026
▁에피소드가	-10027
▁일방적으로	-10028
▁韓	-10029
▁갚	-10030
▁낡	-10031
▁룰	-10032
▁줬	-10033
▁칫	-10034
▁쿼	-10035
강화	-10036
거진	-10037
구나	-10038
내에	-10039
네의	-10040
노가	-10041
독한	-10042
둘러	-10043
란다	-10044
란의	-10045
란이	-10046
랑이	-10047
령은	-10048
르며	-10049
마뱀	-10050
버러	-10051
블던	-10052
세훈	-10053
셰비	-10054
소설	-10055
속이	-10056
실록	-10057
악한	-10058
위기	-10059
자료	-10060
전기	-10061
전자	-10062
제르	-10063
직한	-10064
총장	-10065
층은	-10066
친다	-10067
코프	-10068
테스	-10069
통에	-10070
티브	-10071
팀이	-10072
피가	-10073
피해	-10074
호로	-10075
호에	-10076
▁개관	-10077
▁개명	-10078
▁개헌	-10079
▁건조	-10080
▁검거	-10081
▁고생	-10082
▁과잉	-10083
▁괴벨	-10084
▁국어	-10085
▁깨끗	-10086
▁나뉜	-10087
▁느낄	-10088
▁달의	-10089
▁대칭	-10090
▁도청	-10091
▁동서	-10092
▁러브	-10093
▁레슬	-10094
▁로키	-10095
▁리차	-10096
▁망원	-10097
▁매달	-10098
▁무라	-10099
▁물품	-10100
▁미세	-10101
▁미셸	-10102
▁밀집	-10103
▁박동	-10104
▁박태	-10105
▁박헌	-10106
▁반군	-10107
▁반성	-10108
▁발각	-10109
▁발포	-10110
▁발현	-10111
▁배를	-10112
▁배후	-10113
▁백인	-10114
▁버려	-10115
▁병을	-10116
▁보일	-10117
▁부각	-10118
▁부부	-10119
▁부실	-10120
▁부합	-10121
▁불량	-10122
▁사림	-10123
▁사양	-10124
▁삼각	-10125
▁상영	-10126
▁선물	-10127
▁성숙	-10128
▁숙종	-10129
▁쉽지	-10130
▁스폰	-10131
▁신정	-10132
▁아편	-10133
▁아홉	-10134
▁애틀	-10135
▁어긋	-10136
▁업데	-10137
▁여덟	-10138
▁여주	-10139
▁오고	-10140
▁오웬	-10141
▁올바	-10142
▁와카	-10143
▁와트	-10144
▁완봉	-10145
▁워너	-10146
▁원고	-10147
▁유머	-10148
▁윤리	-10149
▁이겨	-10150
▁이글	-10151
▁이자	-10152
▁일종	-10153
▁일컬	-10154
▁임관	-10155
▁잠정	-10156
▁전락	-10157
▁점거	-10158
▁점과	-10159
▁정수	-10160
▁조달	-10161
▁주차	-10162
▁중대	-10163
▁중재	-10164
▁즈음	-10165
▁지기	-10166
▁쫓아	-10167
▁찾지	-10168
▁총장	-10169
▁칼리	-10170
▁캠퍼	-10171
▁크림	-10172
▁탄자	-10173
▁편이	-10174
▁포드	-10175
▁포인	-10176
▁필립	-10177
▁한강	-10178
▁해인	-10179
▁했기	-10180
▁호응	-10181
▁화재	-10182
▁확고	-10183
▁회귀	-10184
▁회유	-10185
▁획기	-10186
가들은	-10187
검찰청	-10188
관계가	-10189
권에서	-10190
브란스	-10191
상적인	-10192
왔다고	-10193
했음을	-10194
▁각지의	-10195
▁개월간	-10196
▁거라고	-10197
▁검사를	-10198
▁것이나	-10199
▁것인가	-10200
▁게릭은	-10201
▁경쟁을	-10202
▁과정은	-10203
▁느끼고	-10204
▁다리를	-10205
▁단어를	-10206
▁대사를	-10207
▁데뷔한	-10208
▁도왔다	-10209
▁두개골	-10210
▁맡았고	-10211
▁메달을	-10212
▁모바일	-10213
▁무한도	-10214
▁물고기	-10215
▁발라드	-10216
▁발매해	-10217
▁방송국	-10218
▁방어를	-10219
▁법칙을	-10220
▁병력이	-10221
▁병원에	-10222
▁보도가	-10223
▁부담을	-10224
▁브로드	-10225
▁빠졌다	-10226
▁상황은	-10227
▁설립한	-10228
▁성명을	-10229
▁소문이	-10230
▁소속의	-10231
▁시청률	-10232
▁신칸센	-10233
▁아닌가	-10234
▁야스히	-10235
▁언어를	-10236
▁없으나	-10237
▁연패를	-10238
▁온도가	-10239
▁올리고	-10240
▁왕위를	-10241
▁윔블던	-10242
▁유니버	-10243
▁유엔군	-10244
▁은퇴를	-10245
▁이회창	-10246
▁인식이	-10247
▁장르의	-10248
▁재능을	-10249
▁전에는	-10250
▁전제로	-10251
▁정보가	-10252
▁제시한	-10253
▁제작진	-10254
▁조선에	-10255
▁졸업한	-10256
▁주제의	-10257
▁죽였다	-10258
▁철학적	-10259
▁쿠데타	-10260
▁크기의	-10261
▁통틀어	-10262
▁프레스	-10263
▁하우스	-10264
▁학년도	-10265
▁한국군	-10266
▁헌법을	-10267
▁헤라클	-10268
▁활발한	-10269
▁황제에	-10270
▁가능성도	-10271
▁기간동안	-10272
▁나머지는	-10273
▁남아있다	-10274
▁대한제국	-10275
▁동영상을	-10276
▁드러냈다	-10277
▁루마니아	-10278
▁마찬가지	-10279
▁무대에서	-10280
▁물리학자	-10281
▁방문하여	-10282
▁부드러운	-10283
▁북쪽으로	-10284
▁분석했다	-10285
▁비슷하게	-10286
▁사람으로	-10287
▁사용하게	-10288
▁설명한다	-10289
▁손해배상	-10290
▁수준으로	-10291
▁시스템이	-10292
▁시장에서	-10293
▁실패하고	-10294
▁아이들을	-10295
▁아키나는	-10296
▁어머니와	-10297
▁연구하는	-10298
▁원인으로	-10299
▁위안스카	-10300
▁이전까지	-10301
▁이후부터	-10302
▁정도였다	-10303
▁진행했다	-10304
▁처음부터	-10305
▁페르시아	-10306
▁프리미어	-10307
▁학생들이	-10308
▁해명했다	-10309
▁획득했다	-10310
▁후지와라	-10311
▁흥선대원	-10312
▁과학자들은	-10313
▁스위프트는	-10314
▁스파이더맨	-10315
▁올림픽에서	-10316
▁원더걸스는	-10317
▁잉글랜드의	-10318
▁콘스탄티노폴리스	-10319
▁ü	-10320
▁【	-10321
▁淸	-10322
▁툴	-10323
▁튜	-10324
감은	-10325
경영	-10326
궐기	-10327
금융	-10328
나로	-10329
네는	-10330
니소	-10331
단위	-10332
마을	-10333
문과	-10334
바타	-10335
발이	-10336
병에	-10337
보안	-10338
브르	-10339
사랑	-10340
사항	-10341
세력	-10342
졌기	-10343
중의	-10344
쩌둥	-10345
체질	-10346
타지	-10347
탄의	-10348
태를	-10349
투자	-10350
판은	-10351
프라	-10352
프스	-10353
환의	-10354
황이	-10355
▁가나	-10356
▁거야	-10357
▁결별	-10358
▁관념	-10359
▁관람	-10360
▁교섭	-10361
▁구해	-10362
▁군이	-10363
▁굴절	-10364
▁귀환	-10365
▁그랬	-10366
▁기아	-10367
▁노비	-10368
▁대본	-10369
▁돌격	-10370
▁동점	-10371
▁동조	-10372
▁디아	-10373
▁라마	-10374
▁랭크	-10375
▁루수	-10376
▁말고	-10377
▁매입	-10378
▁매치	-10379
▁메리	-10380
▁모드	-10381
▁문항	-10382
▁미치	-10383
▁바뀐	-10384
▁바에	-10385
▁반공	-10386
▁배속	-10387
▁백악	-10388
▁백지	-10389
▁벤처	-10390
▁병이	-10391
▁보강	-10392
▁보잉	-10393
▁복수	-10394
▁부의	-10395
▁부품	-10396
▁비유	-10397
▁사운	-10398
▁사찰	-10399
▁색채	-10400
▁서민	-10401
▁석사	-10402
▁세상	-10403
▁수렴	-10404
▁수업	-10405
▁술을	-10406
▁시추	-10407
▁시키	-10408
▁싸이	-10409
▁쌓아	-10410
▁아닐	-10411
▁아비	-10412
▁아트	-10413
▁알리	-10414
▁양반	-10415
▁양은	-10416
▁얻지	-10417
▁여신	-10418
▁여야	-10419
▁여우	-10420
▁연행	-10421
▁오크	-10422
▁왕위	-10423
▁우측	-10424
▁위장	-10425
▁유물	-10426
▁유족	-10427
▁이디	-10428
▁이심	-10429
▁자서	-10430
▁자선	-10431
▁재차	-10432
▁재혼	-10433
▁정원	-10434
▁조영	-10435
▁조이	-10436
▁조카	-10437
▁주를	-10438
▁중소	-10439
▁증축	-10440
▁지바	-10441
▁지중	-10442
▁진영	-10443
▁초신	-10444
▁총대	-10445
▁총재	-10446
▁출동	-10447
▁캠페	-10448
▁커피	-10449
▁팔린	-10450
▁평정	-10451
▁하노	-10452
▁학대	-10453
▁한겨	-10454
▁한효	-10455
▁합계	-10456
▁항생	-10457
▁해협	-10458
▁호를	-10459
▁흑사	-10460
경찰청	-10461
관계에	-10462
네시아	-10463
드리아	-10464
들과는	-10465
마이오	-10466
받았고	-10467
비서실	-10468
사회의	-10469
소리를	-10470
야말로	-10471
위원장	-10472
으려고	-10473
작으로	-10474
정부는	-10475
주에서	-10476
지는데	-10477
학적인	-10478
행위를	-10479
▁가져다	-10480
▁검찰에	-10481
▁것들이	-10482
▁과도한	-10483
▁국가와	-10484
▁국민이	-10485
▁기준을	-10486
▁김일성	-10487
▁나라가	-10488
▁닌텐도	-10489
▁다이아	-10490
▁대가로	-10491
▁대표적	-10492
▁대학생	-10493
▁독립된	-10494
▁독일에	-10495
▁독일은	-10496
▁드라이	-10497
▁드러머	-10498
▁디스크	-10499
▁뛰어나	-10500
▁라이온	-10501
▁로넌은	-10502
▁로마를	-10503
▁리버풀	-10504
▁마케팅	-10505
▁말부터	-10506
▁명예를	-10507
▁못하여	-10508
▁무소속	-10509
▁밖에도	-10510
▁법무부	-10511
▁베컴이	-10512
▁변화는	-10513
▁보고를	-10514
▁분야의	-10515
▁불렸다	-10516
▁사라진	-10517
▁사랑의	-10518
▁사회가	-10519
▁사회를	-10520
▁살았다	-10521
▁상업적	-10522
▁선공개	-10523
▁설립된	-10524
▁소행성	-10525
▁수업을	-10526
▁수표의	-10527
▁승리에	-10528
▁시간의	-10529
▁시도를	-10530
▁시에는	-10531
▁시즌은	-10532
▁연락을	-10533
▁연합군	-10534
▁염두에	-10535
▁영국에	-10536
▁예수의	-10537
▁음악과	-10538
▁이스트	-10539
▁이어진	-10540
▁일으킬	-10541
▁있다며	-10542
▁자료에	-10543
▁자유와	-10544
▁전반에	-10545
▁전투에	-10546
▁절차를	-10547
▁제국이	-10548
▁제도가	-10549
▁제이크	-10550
▁찌르레	-10551
▁차트에	-10552
▁찾아와	-10553
▁철학자	-10554
▁최근의	-10555
▁크기가	-10556
▁파이널	-10557
▁프랜시	-10558
▁프로모	-10559
▁프톨레	-10560
▁형성된	-10561
▁회장이	-10562
▁갈릴레오	-10563
▁국회에서	-10564
▁그로부터	-10565
▁그리스어	-10566
▁노무현의	-10567
▁담당했다	-10568
▁동쪽으로	-10569
▁명령했다	-10570
▁못하도록	-10571
▁박근혜가	-10572
▁발견된다	-10573
▁부르기도	-10574
▁부르주아	-10575
▁불가리아	-10576
▁브리트니	-10577
▁비례대표	-10578
▁뿐이었다	-10579
▁사람들과	-10580
▁사용하기	-10581
▁설치되어	-10582
▁세계대전	-10583
▁승리했다	-10584
▁열린우리	-10585
▁오바마는	-10586
▁오버워치	-10587
▁유명하다	-10588
▁유지하기	-10589
▁이곳에서	-10590
▁인터넷에	-10591
▁입장에서	-10592
▁자격으로	-10593
▁작품에서	-10594
▁정부에서	-10595
▁주한미군	-10596
▁증가하고	-10597
▁지시했다	-10598
▁진출했다	-10599
▁진행되는	-10600
▁차지했고	-10601
▁최진실을	-10602
▁추정되는	-10603
▁캐나다의	-10604
▁콜로라도	-10605
▁팬들에게	-10606
▁한국전쟁	-10607
▁활동하는	-10608
▁히틀러의	-10609
▁기록되었다	-10610
▁기록하면서	-10611
▁기록하였고	-10612
▁상황이었다	-10613
▁생각하였다	-10614
▁선언하였다	-10615
▁전반적으로	-10616
▁추가되었다	-10617
▁취임하였다	-10618
▁헤이우드는	-10619
▁냈	-10620
▁딴	-10621
▁슐	-10622
▁엇	-10623
▁옐	-10624
▁텐	-10625
▁홋	-10626
검사	-10627
것은	-10628
공격	-10629
교에	-10630
널티	-10631
니얼	-10632
달라	-10633
대륙	-10634
더라	-10635
두는	-10636
라에	-10637
레의	-10638
례로	-10639
롤라	-10640
르를	-10641
르바	-10642
명에	-10643
모로	-10644
모의	-10645
미래	-10646
미팅	-10647
밀히	-10648
방위	-10649
부상	-10650
브라	-10651
시노	-10652
심에	-10653
안과	-10654
았기	-10655
염을	-10656
유대	-10657
이도	-10658
저히	-10659
제한	-10660
조연	-10661
지대	-10662
치오	-10663
치히	-10664
타워	-10665
판매	-10666
프에	-10667
플라	-10668
하길	-10669
학원	-10670
행사	-10671
확인	-10672
▁ii	-10673
▁가마	-10674
▁각국	-10675
▁강대	-10676
▁강릉	-10677
▁강연	-10678
▁같아	-10679
▁개원	-10680
▁경력	-10681
▁곡인	-10682
▁공모	-10683
▁공안	-10684
▁괜찮	-10685
▁국유	-10686
▁급히	-10687
▁김상	-10688
▁깨달	-10689
▁나탈	-10690
▁남동	-10691
▁내걸	-10692
▁내게	-10693
▁냉각	-10694
▁넘버	-10695
▁노신	-10696
▁다마	-10697
▁다툼	-10698
▁다행	-10699
▁단원	-10700
▁도서	-10701
▁돌출	-10702
▁동화	-10703
▁두어	-10704
▁드는	-10705
▁때때	-10706
▁루트	-10707
▁리틀	-10708
▁마라	-10709
▁마법	-10710
▁만장	-10711
▁맞고	-10712
▁매매	-10713
▁메타	-10714
▁모나	-10715
▁미루	-10716
▁반출	-10717
▁배드	-10718
▁번갈	-10719
▁벌금	-10720
▁범위	-10721
▁보낼	-10722
▁봉건	-10723
▁봉사	-10724
▁분광	-10725
▁삶에	-10726
▁세르	-10727
▁세바	-10728
▁세트	-10729
▁속해	-10730
▁수동	-10731
▁수임	-10732
▁수직	-10733
▁스맥	-10734
▁신비	-10735
▁신축	-10736
▁실각	-10737
▁실업	-10738
▁압축	-10739
▁어업	-10740
▁염색	-10741
▁원리	-10742
▁원에	-10743
▁이끈	-10744
▁이뤘	-10745
▁이토	-10746
▁이화	-10747
▁자크	-10748
▁작년	-10749
▁장타	-10750
▁재료	-10751
▁잭슨	-10752
▁전년	-10753
▁절차	-10754
▁주말	-10755
▁죽여	-10756
▁죽인	-10757
▁지붕	-10758
▁지점	-10759
▁청원	-10760
▁최후	-10761
▁추격	-10762
▁춘천	-10763
▁취업	-10764
▁측의	-10765
▁칼럼	-10766
▁코드	-10767
▁트럭	-10768
▁파격	-10769
▁포경	-10770
▁폴은	-10771
▁필름	-10772
▁호기	-10773
▁호로	-10774
▁호선	-10775
▁호세	-10776
▁화해	-10777
▁후궁	-10778
▁후일	-10779
▁휩싸	-10780
▁휴식	-10781
▁힌두	-10782
것으로	-10783
겼으며	-10784
내면서	-10785
라시아	-10786
레스트	-10787
문으로	-10788
문제를	-10789
사들이	-10790
사업을	-10791
연구원	-10792
정부가	-10793
주의가	-10794
지었다	-10795
하르트	-10796
훈련을	-10797
▁가가의	-10798
▁가족과	-10799
▁가족을	-10800
▁가족의	-10801
▁감독과	-10802
▁건너가	-10803
▁결정에	-10804
▁경계를	-10805
▁경고를	-10806
▁공부를	-10807
▁관리를	-10808
▁교수의	-10809
▁교회에	-10810
▁권한이	-10811
▁그렇기	-10812
▁기간이	-10813
▁까마귀	-10814
▁남자의	-10815
▁노래의	-10816
▁높이는	-10817
▁니체는	-10818
▁니콜라	-10819
▁다음해	-10820
▁당국은	-10821
▁대다수	-10822
▁대신해	-10823
▁더욱이	-10824
▁둥지를	-10825
▁드디어	-10826
▁런던의	-10827
▁로타르	-10828
▁루돌프	-10829
▁마을을	-10830
▁모양을	-10831
▁믹스테	-10832
▁범위를	-10833
▁부대가	-10834
▁부분의	-10835
▁블리자	-10836
▁사고로	-10837
▁사이를	-10838
▁살면서	-10839
▁서사시	-10840
▁서울에	-10841
▁서유럽	-10842
▁선수는	-10843
▁시민의	-10844
▁시청자	-10845
▁싱글로	-10846
▁싱글인	-10847
▁싶다는	-10848
▁아래로	-10849
▁아이콘	-10850
▁안드레	-10851
▁어렸을	-10852
▁언론인	-10853
▁에인절	-10854
▁여명의	-10855
▁와일러	-10856
▁우주의	-10857
▁원칙을	-10858
▁위치해	-10859
▁위협이	-10860
▁유리한	-10861
▁유시민	-10862
▁이사장	-10863
▁이와테	-10864
▁인간을	-10865
▁일찍이	-10866
▁임진왜	-10867
▁자세히	-10868
▁자체는	-10869
▁작성한	-10870
▁적합한	-10871
▁전통을	-10872
▁정당은	-10873
▁정상에	-10874
▁정신과	-10875
▁정해진	-10876
▁제작된	-10877
▁조건을	-10878
▁조정을	-10879
▁중요시	-10880
▁진행될	-10881
▁차원의	-10882
▁천황의	-10883
▁체질의	-10884
▁출신인	-10885
▁쿰스는	-10886
▁클라이	-10887
▁클래식	-10888
▁태양계	-10889
▁토마스	-10890
▁파트너	-10891
▁팬미팅	-10892
▁페리의	-10893
▁폭주족	-10894
▁피하기	-10895
▁학교의	-10896
▁헌법의	-10897
▁현대의	-10898
▁호흡을	-10899
▁혼란을	-10900
▁황위를	-10901
▁회색늑	-10902
▁흐르는	-10903
▁경상남도	-10904
▁고속도로	-10905
▁국제적인	-10906
▁나타나고	-10907
▁남아있는	-10908
▁단계에서	-10909
▁당하였다	-10910
▁돌아가는	-10911
▁동메달을	-10912
▁떨어지는	-10913
▁러시아는	-10914
▁마드리드	-10915
▁마오쩌둥	-10916
▁만들었고	-10917
▁무시하고	-10918
▁민주통합	-10919
▁바이올린	-10920
▁발견되는	-10921
▁발생한다	-10922
▁보호하기	-10923
▁불가능한	-10924
▁사회에서	-10925
▁상관없이	-10926
▁스맥다운	-10927
▁스스로를	-10928
▁시절에는	-10929
▁실질적인	-10930
▁안정적인	-10931
▁어려움이	-10932
▁없었다고	-10933
▁엔지니어	-10934
▁역사학자	-10935
▁올랐으며	-10936
▁올림픽이	-10937
▁완벽하게	-10938
▁의사소통	-10939
▁이후로는	-10940
▁재판부는	-10941
▁정확하게	-10942
▁제목으로	-10943
▁주민들은	-10944
▁진행되고	-10945
▁집행유예	-10946
▁청와대는	-10947
▁킬로그램	-10948
▁트레이닝	-10949
▁포기하고	-10950
▁한반도에	-10951
▁혼즈비는	-10952
▁홈페이지	-10953
▁확인했다	-10954
▁가니메데의	-10955
▁당선되었다	-10956
▁만들어냈다	-10957
▁만들어진다	-10958
▁발매하였고	-10959
▁시리즈에서	-10960
▁실질적으로	-10961
▁언급하였다	-10962
▁전국적으로	-10963
▁활동전위를	-10964
▁프톨레마이오	-10965
▁ö	-10966
▁文	-10967
▁朴	-10968
▁깜	-10969
▁꽂	-10970
▁꽤	-10971
▁뉘	-10972
▁붐	-10973
▁셔	-10974
▁윗	-10975
▁잎	-10976
▁퀘	-10977
가스	-10978
거래	-10979
구성	-10980
기기	-10981
나우	-10982
더의	-10983
독일	-10984
러와	-10985
무역	-10986
물리	-10987
밀리	-10988
바는	-10989
박한	-10990
버려	-10991
변이	-10992
보증	-10993
빌리	-10994
시위	-10995
시킴	-10996
아니	-10997
아웃	-10998
안타	-10999
양의	-11000
여성	-11001
운다	-11002
음과	-11003
전공	-11004
주인	-11005
지모	-11006
카스	-11007
티지	-11008
풍이	-11009
희가	-11010
히지	-11011
▁가뭄	-11012
▁가와	-11013
▁각색	-11014
▁각자	-11015
▁갈색	-11016
▁감추	-11017
▁개종	-11018
▁결집	-11019
▁고유	-11020
▁곤란	-11021
▁공인	-11022
▁공표	-11023
▁과시	-11024
▁관저	-11025
▁군수	-11026
▁기고	-11027
▁김해	-11028
▁년생	-11029
▁높고	-11030
▁다윈	-11031
▁단군	-11032
▁더글	-11033
▁더해	-11034
▁덕혜	-11035
▁데는	-11036
▁데브	-11037
▁도주	-11038
▁등용	-11039
▁맞은	-11040
▁매주	-11041
▁모범	-11042
▁모색	-11043
▁무늬	-11044
▁물에	-11045
▁믹싱	-11046
▁밀리	-11047
▁밑에	-11048
▁바둑	-11049
▁버지	-11050
▁법은	-11051
▁북방	-11052
▁붕어	-11053
▁비평	-11054
▁상원	-11055
▁선동	-11056
▁선원	-11057
▁선의	-11058
▁성우	-11059
▁세습	-11060
▁센트	-11061
▁소실	-11062
▁소울	-11063
▁스캔	-11064
▁스핀	-11065
▁시게	-11066
▁심화	-11067
▁아베	-11068
▁엔트	-11069
▁엠넷	-11070
▁연금	-11071
▁열강	-11072
▁열려	-11073
▁염려	-11074
▁영주	-11075
▁예약	-11076
▁온건	-11077
▁운반	-11078
▁원수	-11079
▁원천	-11080
▁육성	-11081
▁이득	-11082
▁이복	-11083
▁이송	-11084
▁이오	-11085
▁이의	-11086
▁잃게	-11087
▁자를	-11088
▁잡힌	-11089
▁전념	-11090
▁전무	-11091
▁정윤	-11092
▁정작	-11093
▁조심	-11094
▁종속	-11095
▁주석	-11096
▁중견	-11097
▁중복	-11098
▁지녔	-11099
▁지자	-11100
▁지평	-11101
▁집시	-11102
▁차가	-11103
▁처분	-11104
▁초창	-11105
▁축제	-11106
▁축출	-11107
▁카피	-11108
▁캐서	-11109
▁커플	-11110
▁탄약	-11111
▁태그	-11112
▁편지	-11113
▁폐위	-11114
▁포괄	-11115
▁푸른	-11116
▁피할	-11117
▁필로	-11118
▁한중	-11119
▁현직	-11120
▁호가	-11121
▁호메	-11122
▁혼인	-11123
▁화산	-11124
▁후배	-11125
▁흔한	-11126
▁히타	-11127
가에서	-11128
되도록	-11129
라이어	-11130
리우드	-11131
민들은	-11132
았다는	-11133
어지는	-11134
웠으며	-11135
자라고	-11136
전까지	-11137
지라도	-11138
하려면	-11139
함으로	-11140
해야만	-11141
▁가까워	-11142
▁가난한	-11143
▁가족은	-11144
▁개발에	-11145
▁거리에	-11146
▁검찰이	-11147
▁게이지	-11148
▁공간이	-11149
▁공연은	-11150
▁구단의	-11151
▁구하기	-11152
▁국가는	-11153
▁그쳤다	-11154
▁글로브	-11155
▁급속히	-11156
▁기간을	-11157
▁노래가	-11158
▁노력은	-11159
▁높였다	-11160
▁달러에	-11161
▁대주교	-11162
▁데일리	-11163
▁때때로	-11164
▁뚜렷한	-11165
▁뜻이다	-11166
▁라고도	-11167
▁만나는	-11168
▁맡았던	-11169
▁명이다	-11170
▁명확한	-11171
▁목성의	-11172
▁못했던	-11173
▁벤허는	-11174
▁보도를	-11175
▁분석을	-11176
▁분위기	-11177
▁비타민	-11178
▁사과를	-11179
▁사이버	-11180
▁사회당	-11181
▁생각은	-11182
▁성향을	-11183
▁소련은	-11184
▁시기를	-11185
▁신화를	-11186
▁신화의	-11187
▁안정을	-11188
▁에트루	-11189
▁예산을	-11190
▁왕조의	-11191
▁움직일	-11192
▁윤잉의	-11193
▁의무를	-11194
▁의화단	-11195
▁의회는	-11196
▁전자기	-11197
▁전쟁과	-11198
▁조언을	-11199
▁주니어	-11200
▁지키는	-11201
▁진화의	-11202
▁질량의	-11203
▁질병의	-11204
▁총리는	-11205
▁클럽의	-11206
▁평범한	-11207
▁한계를	-11208
▁한성부	-11209
▁할머니	-11210
▁했었다	-11211
▁행동이	-11212
▁향하는	-11213
▁확률이	-11214
▁확실한	-11215
▁활성화	-11216
들에게도	-11217
했음에도	-11218
▁가필드는	-11219
▁개시했다	-11220
▁건륭제가	-11221
▁국민의당	-11222
▁그레이트	-11223
▁기독교의	-11224
▁나타낸다	-11225
▁나타냈다	-11226
▁담당하고	-11227
▁러시아가	-11228
▁말하기를	-11229
▁명나라의	-11230
▁받아들일	-11231
▁발매했고	-11232
▁베이스볼	-11233
▁비밀리에	-11234
▁비트코인	-11235
▁사법시험	-11236
▁서인영은	-11237
▁시민단체	-11238
▁시작되어	-11239
▁실시했다	-11240
▁싱가포르	-11241
▁아래에서	-11242
▁어머니의	-11243
▁여주인공	-11244
▁연합군의	-11245
▁운동으로	-11246
▁움직임이	-11247
▁의과대학	-11248
▁이상으로	-11249
▁이효리는	-11250
▁이휘소는	-11251
▁인정했다	-11252
▁제공한다	-11253
▁조건으로	-11254
▁조성민은	-11255
▁지방에서	-11256
▁참가했다	-11257
▁체포되어	-11258
▁판단했다	-11259
▁판매고를	-11260
▁학생들은	-11261
▁학생들의	-11262
▁후계자로	-11263
▁리투아니아	-11264
▁민주노동당	-11265
▁상업적으로	-11266
▁설립하였다	-11267
▁알렉시우스	-11268
▁인도네시아	-11269
▁진출하였다	-11270
▁합스부르크	-11271
▁비트겐슈타인의	-11272
▁國	-11273
▁갓	-11274
▁돔	-11275
▁뷔	-11276
▁숀	-11277
▁옴	-11278
▁쥬	-11279
관광	-11280
그레	-11281
길이	-11282
노의	-11283
능력	-11284
니카	-11285
동과	-11286
란히	-11287
로만	-11288
루의	-11289
명인	-11290
목에	-11291
방향	-11292
비치	-11293
사도	-11294
성인	-11295
실과	-11296
언어	-11297
역사	-11298
연의	-11299
온이	-11300
올로	-11301
요한	-11302
장교	-11303
준은	-11304
준표	-11305
지나	-11306
짐을	-11307
추월	-11308
킨다	-11309
티넨	-11310
편에	-11311
피는	-11312
현은	-11313
황제	-11314
▁가야	-11315
▁겪고	-11316
▁경순	-11317
▁골프	-11318
▁관습	-11319
▁교원	-11320
▁교차	-11321
▁군기	-11322
▁규탄	-11323
▁그럴	-11324
▁극동	-11325
▁글러	-11326
▁기호	-11327
▁길고	-11328
▁김문	-11329
▁김진	-11330
▁날씨	-11331
▁날인	-11332
▁날카	-11333
▁낳은	-11334
▁노골	-11335
▁노인	-11336
▁단종	-11337
▁당내	-11338
▁대수	-11339
▁더빙	-11340
▁데서	-11341
▁도끼	-11342
▁듣는	-11343
▁마하	-11344
▁막내	-11345
▁맞대	-11346
▁멀티	-11347
▁메살	-11348
▁면역	-11349
▁면제	-11350
▁모은	-11351
▁모호	-11352
▁미소	-11353
▁믿을	-11354
▁박종	-11355
▁반입	-11356
▁발명	-11357
▁배신	-11358
▁벌여	-11359
▁법인	-11360
▁복음	-11361
▁부추	-11362
▁불참	-11363
▁불확	-11364
▁붙은	-11365
▁비준	-11366
▁뽑아	-11367
▁사사	-11368
▁사살	-11369
▁사인	-11370
▁사토	-11371
▁상공	-11372
▁상속	-11373
▁서방	-11374
▁섬유	-11375
▁세속	-11376
▁소모	-11377
▁속의	-11378
▁수년	-11379
▁시집	-11380
▁시켜	-11381
▁신용	-11382
▁실버	-11383
▁악기	-11384
▁안팎	-11385
▁애비	-11386
▁양산	-11387
▁어쩔	-11388
▁억울	-11389
▁업적	-11390
▁여대	-11391
▁연재	-11392
▁영업	-11393
▁영유	-11394
▁오시	-11395
▁온타	-11396
▁왕은	-11397
▁용의	-11398
▁원형	-11399
▁위권	-11400
▁위는	-11401
▁유키	-11402
▁의거	-11403
▁이바	-11404
▁인원	-11405
▁일축	-11406
▁자국	-11407
▁자행	-11408
▁장갑	-11409
▁장려	-11410
▁전수	-11411
▁제네	-11412
▁준수	-11413
▁중종	-11414
▁집계	-11415
▁집의	-11416
▁차원	-11417
▁창단	-11418
▁최상	-11419
▁최연	-11420
▁충실	-11421
▁탓에	-11422
▁투명	-11423
▁특급	-11424
▁포유	-11425
▁포착	-11426
▁플립	-11427
▁한마	-11428
▁한신	-11429
▁한족	-11430
▁한진	-11431
▁해수	-11432
네이션	-11433
레스는	-11434
리기도	-11435
시대의	-11436
시키려	-11437
심에서	-11438
운동의	-11439
으려는	-11440
자라는	-11441
종으로	-11442
지느러	-11443
지스톤	-11444
▁가사를	-11445
▁가족이	-11446
▁감옥에	-11447
▁강에서	-11448
▁개념이	-11449
▁게임에	-11450
▁경제를	-11451
▁공간을	-11452
▁교황청	-11453
▁구조는	-11454
▁국가로	-11455
▁군단의	-11456
▁나뉜다	-11457
▁나라에	-11458
▁남아있	-11459
▁남조선	-11460
▁내려가	-11461
▁넘치는	-11462
▁노르드	-11463
▁노선은	-11464
▁논쟁을	-11465
▁되풀이	-11466
▁뛰었다	-11467
▁라이트	-11468
▁리그에	-11469
▁리믹스	-11470
▁말하면	-11471
▁명단에	-11472
▁명에서	-11473
▁모두를	-11474
▁물건을	-11475
▁받았던	-11476
▁베이루	-11477
▁보이게	-11478
▁불리한	-11479
▁브레이	-11480
▁블라디	-11481
▁사드는	-11482
▁산리쿠	-11483
▁상에서	-11484
▁성인이	-11485
▁소련군	-11486
▁속도는	-11487
▁수술을	-11488
▁수학적	-11489
▁실수를	-11490
▁싱글이	-11491
▁않아서	-11492
▁에서의	-11493
▁여성을	-11494
▁여학생	-11495
▁연대는	-11496
▁옹정제	-11497
▁요시노	-11498
▁음반이	-11499
▁음악의	-11500
▁의사결	-11501
▁이같은	-11502
▁이르렀	-11503
▁잃었다	-11504
▁전라도	-11505
▁정권은	-11506
▁정도를	-11507
▁정신적	-11508
▁제국은	-11509
▁제국을	-11510
▁조정은	-11511
▁죽음의	-11512
▁준비가	-11513
▁중성자	-11514
▁지방에	-11515
▁지역과	-11516
▁질문을	-11517
▁차량의	-11518
▁채널이	-11519
▁천체가	-11520
▁최선을	-11521
▁커리어	-11522
▁케네디	-11523
▁콘텐츠	-11524
▁특이점	-11525
▁팀추월	-11526
▁하노버	-11527
▁하려고	-11528
▁한다면	-11529
▁해에는	-11530
▁행위에	-11531
▁현상은	-11532
▁화려한	-11533
▁회담을	-11534
▁휴식을	-11535
으면서도	-11536
▁건강보험	-11537
▁게스트로	-11538
▁결정하는	-11539
▁경우에도	-11540
▁공격했다	-11541
▁구분된다	-11542
▁그러다가	-11543
▁독일에서	-11544
▁동아일보	-11545
▁드래곤볼	-11546
▁들어오는	-11547
▁문재인이	-11548
▁법과대학	-11549
▁분위기가	-11550
▁비욘세는	-11551
▁사람들도	-11552
▁서울지방	-11553
▁스페인의	-11554
▁시대에는	-11555
▁시민들은	-11556
▁아리스토	-11557
▁업데이트	-11558
▁없었지만	-11559
▁영향력이	-11560
▁온타리오	-11561
▁올림픽의	-11562
▁일원으로	-11563
▁전반적인	-11564
▁전역에서	-11565
▁종교적인	-11566
▁차지한다	-11567
▁참여하는	-11568
▁청나라는	-11569
▁컬럼비아	-11570
▁탄자니아	-11571
▁펜실베이	-11572
▁포함된다	-11573
▁폴란드의	-11574
▁현존하는	-11575
▁환경에서	-11576
주의자들은	-11577
▁남아메리카	-11578
▁네덜란드의	-11579
▁대학교에서	-11580
▁동남아시아	-11581
▁불가능하다	-11582
▁스토리보드	-11583
▁스피어스의	-11584
▁시작하면서	-11585
▁크리스마스	-11586
▁한국에서는	-11587
▁효과적으로	-11588
▁스튜디오에서	-11589
▁反	-11590
▁安	-11591
▁鄭	-11592
▁곽	-11593
▁굿	-11594
▁깎	-11595
▁맘	-11596
▁뿔	-11597
▁왈	-11598
▁젠	-11599
▁퀴	-11600
▁퐁	-11601
결합	-11602
교수	-11603
국장	-11604
너스	-11605
니치	-11606
당시	-11607
들고	-11608
디에	-11609
랭크	-11610
류와	-11611
르몬	-11612
리던	-11613
리한	-11614
막을	-11615
매매	-11616
바닥	-11617
바흐	-11618
보지	-11619
빈의	-11620
세로	-11621
솔리	-11622
순은	-11623
순이	-11624
신경	-11625
양성	-11626
업체	-11627
예를	-11628
오게	-11629
운영	-11630
음은	-11631
의학	-11632
자본	-11633
작전	-11634
전한	-11635
제인	-11636
준비	-11637
참여	-11638
츠와	-11639
칙을	-11640
카르	-11641
캐슬	-11642
코가	-11643
코는	-11644
코와	-11645
키를	-11646
터스	-11647
테쓰	-11648
토와	-11649
트롤	-11650
티모	-11651
퍼거	-11652
포와	-11653
행의	-11654
현이	-11655
회장	-11656
▁가맹	-11657
▁가물	-11658
▁간단	-11659
▁개칭	-11660
▁경북	-11661
▁고마	-11662
▁공과	-11663
▁궁정	-11664
▁규범	-11665
▁그게	-11666
▁그루	-11667
▁극히	-11668
▁기둥	-11669
▁김용	-11670
▁꿈을	-11671
▁나은	-11672
▁낡은	-11673
▁내외	-11674
▁높여	-11675
▁다녀	-11676
▁달에	-11677
▁당장	-11678
▁대치	-11679
▁돕기	-11680
▁동경	-11681
▁동창	-11682
▁두꺼	-11683
▁든다	-11684
▁딸인	-11685
▁뜻이	-11686
▁러셀	-11687
▁로얄	-11688
▁리베	-11689
▁리패	-11690
▁마비	-11691
▁맺은	-11692
▁메르	-11693
▁몽고	-11694
▁문법	-11695
▁미싱	-11696
▁미칠	-11697
▁민병	-11698
▁믿는	-11699
▁바비	-11700
▁박원	-11701
▁반격	-11702
▁발트	-11703
▁방안	-11704
▁배려	-11705
▁백상	-11706
▁버튼	-11707
▁번지	-11708
▁보충	-11709
▁복구	-11710
▁불꽃	-11711
▁비즈	-11712
▁살이	-11713
▁석권	-11714
▁선도	-11715
▁성에	-11716
▁소외	-11717
▁수성	-11718
▁수은	-11719
▁숨어	-11720
▁스릴	-11721
▁승차	-11722
▁시골	-11723
▁신도	-11724
▁신약	-11725
▁신은	-11726
▁실내	-11727
▁실린	-11728
▁실점	-11729
▁심해	-11730
▁싸워	-11731
▁씨의	-11732
▁아기	-11733
▁안쪽	-11734
▁에미	-11735
▁여럿	-11736
▁오를	-11737
▁온갖	-11738
▁온도	-11739
▁유혹	-11740
▁이긴	-11741
▁이데	-11742
▁이북	-11743
▁이즈	-11744
▁이희	-11745
▁익숙	-11746
▁잇따	-11747
▁자산	-11748
▁작센	-11749
▁재무	-11750
▁재벌	-11751
▁저택	-11752
▁전담	-11753
▁전북	-11754
▁정찰	-11755
▁조재	-11756
▁존슨	-11757
▁주창	-11758
▁죽는	-11759
▁죽자	-11760
▁줬다	-11761
▁즐거	-11762
▁증진	-11763
▁지카	-11764
▁지표	-11765
▁지혜	-11766
▁차기	-11767
▁천안	-11768
▁쳤다	-11769
▁초고	-11770
▁초의	-11771
▁총괄	-11772
▁최강	-11773
▁치고	-11774
▁카타	-11775
▁케라	-11776
▁탐구	-11777
▁태종	-11778
▁터키	-11779
▁털어	-11780
▁특집	-11781
▁티저	-11782
▁페리	-11783
▁평론	-11784
▁포수	-11785
▁플랫	-11786
▁하차	-11787
▁하천	-11788
▁한류	-11789
▁함대	-11790
▁해의	-11791
▁헌신	-11792
▁형을	-11793
▁형편	-11794
▁화를	-11795
▁황족	-11796
▁휘말	-11797
▁힘의	-11798
기면서	-11799
는지는	-11800
능력을	-11801
당하게	-11802
레이드	-11803
리라고	-11804
리스는	-11805
시키지	-11806
운동에	-11807
자였다	-11808
자이다	-11809
장하는	-11810
정당의	-11811
주식회	-11812
테리아	-11813
하자고	-11814
▁가지로	-11815
▁가처분	-11816
▁감염된	-11817
▁개인적	-11818
▁것에서	-11819
▁결승에	-11820
▁경로를	-11821
▁고양이	-11822
▁공격에	-11823
▁공화당	-11824
▁교수가	-11825
▁구조가	-11826
▁군단은	-11827
▁권유로	-11828
▁규모는	-11829
▁규정을	-11830
▁그룹을	-11831
▁극도로	-11832
▁기술적	-11833
▁기자는	-11834
▁긴밀한	-11835
▁내용에	-11836
▁논의를	-11837
▁뉴캐슬	-11838
▁다니엘	-11839
▁담당한	-11840
▁대학원	-11841
▁더하여	-11842
▁데에는	-11843
▁독일과	-11844
▁되었던	-11845
▁되었을	-11846
▁뒤에도	-11847
▁말했고	-11848
▁맞았다	-11849
▁명령에	-11850
▁명예의	-11851
▁무료로	-11852
▁무리를	-11853
▁무솔리	-11854
▁물리학	-11855
▁바다로	-11856
▁바다의	-11857
▁발언에	-11858
▁밴쿠버	-11859
▁변호인	-11860
▁보냈고	-11861
▁보병사	-11862
▁불가피	-11863
▁비중이	-11864
▁사드를	-11865
▁사실로	-11866
▁사이가	-11867
▁선거인	-11868
▁설립을	-11869
▁세력의	-11870
▁세포이	-11871
▁수준이	-11872
▁승부차	-11873
▁시대가	-11874
▁시절의	-11875
▁십자가	-11876
▁싱글을	-11877
▁쓰이고	-11878
▁쓰인다	-11879
▁아돌프	-11880
▁아들로	-11881
▁아름다	-11882
▁아이가	-11883
▁안되는	-11884
▁앨리스	-11885
▁언론은	-11886
▁없음을	-11887
▁역사에	-11888
▁연기에	-11889
▁연설을	-11890
▁영화제	-11891
▁오르며	-11892
▁올렸고	-11893
▁왕으로	-11894
▁우리를	-11895
▁원래의	-11896
▁위클리	-11897
▁유전형	-11898
▁유학생	-11899
▁의견도	-11900
▁의미로	-11901
▁이론이	-11902
▁인식을	-11903
▁장성택	-11904
▁적용된	-11905
▁점령한	-11906
▁제기한	-11907
▁주위의	-11908
▁주제에	-11909
▁죽음에	-11910
▁중심에	-11911
▁지구에	-11912
▁지키고	-11913
▁진행한	-11914
▁집안의	-11915
▁차이는	-11916
▁책에서	-11917
▁촛불집	-11918
▁충돌이	-11919
▁칭호를	-11920
▁캐서린	-11921
▁코리아	-11922
▁콰지모	-11923
▁크기는	-11924
▁크로스	-11925
▁클린턴	-11926
▁타율이	-11927
▁텔레콤	-11928
▁통치를	-11929
▁특이한	-11930
▁팬들은	-11931
▁페널티	-11932
▁프란츠	-11933
▁프랭크	-11934
▁프리킥	-11935
▁하도록	-11936
▁행동은	-11937
▁행사에	-11938
▁행위가	-11939
▁헌법에	-11940
▁형식을	-11941
▁홍준표	-11942
▁활동한	-11943
▁회사는	-11944
▁후속곡	-11945
되었음을	-11946
만으로도	-11947
시키면서	-11948
아프리카	-11949
이었다는	-11950
하였다가	-11951
▁것이라며	-11952
▁결승에서	-11953
▁결혼했다	-11954
▁기점으로	-11955
▁나중에는	-11956
▁노력했다	-11957
▁논문에서	-11958
▁다케모토	-11959
▁대규모의	-11960
▁도쿠가와	-11961
▁독일군은	-11962
▁되었으나	-11963
▁등장했다	-11964
▁런던에서	-11965
▁못했지만	-11966
▁박신혜는	-11967
▁발견되지	-11968
▁발생하여	-11969
▁뱅크스는	-11970
▁버지니아	-11971
▁사실이다	-11972
▁설치하여	-11973
▁세드나의	-11974
▁소유하고	-11975
▁수단으로	-11976
▁수행하는	-11977
▁시청률을	-11978
▁아르헨티	-11979
▁아스퍼거	-11980
▁아이스하	-11981
▁에스메랄	-11982
▁여론조사	-11983
▁연기대상	-11984
▁위협하는	-11985
▁율리우스	-11986
▁일반상대	-11987
▁적용되어	-11988
▁전쟁으로	-11989
▁점령했다	-11990
▁제기되고	-11991
▁존재하고	-11992
▁중요하다	-11993
▁측에서는	-11994
▁파이어폭	-11995
▁활동으로	-11996
▁거부하였다	-11997
▁국제적으로	-11998
▁나폴레옹의	-11999
▁대회에서는	-12000
▁발생하였다	-12001
▁부산대학교	-12002
▁브리트니의	-12003
▁선고받았다	-12004
▁소프트웨어	-12005
▁실시하였다	-12006
▁있었음에도	-12007
▁제안하였다	-12008
▁퍼포먼스를	-12009
▁天	-12010
▁늙	-12011
▁딘	-12012
▁띤	-12013
▁립	-12014
▁벵	-12015
▁얀	-12016
▁얇	-12017
▁텃	-12018
▁흙	-12019
親王	-12020
각류	-12021
건설	-12022
공원	-12023
교동	-12024
난을	-12025
당할	-12026
당해	-12027
대부	-12028
데르	-12029
두로	-12030
두를	-12031
디언	-12032
라서	-12033
렉션	-12034
록을	-12035
루미	-12036
림은	-12037
마에	-12038
망에	-12039
문관	-12040
받게	-12041
변호	-12042
병은	-12043
보니	-12044
보위	-12045
보의	-12046
블리	-12047
사법	-12048
사한	-12049
상가	-12050
세대	-12051
수단	-12052
신인	-12053
아를	-12054
오리	-12055
외교	-12056
운의	-12057
이후	-12058
전도	-12059
조나	-12060
지않	-12061
총을	-12062
턴이	-12063
토르	-12064
톤의	-12065
포의	-12066
풍의	-12067
필드	-12068
▁가사	-12069
▁거세	-12070
▁견해	-12071
▁계절	-12072
▁공은	-12073
▁공주	-12074
▁공학	-12075
▁과의	-12076
▁길게	-12077
▁김씨	-12078
▁남침	-12079
▁났다	-12080
▁내장	-12081
▁내정	-12082
▁넣은	-12083
▁네오	-12084
▁동문	-12085
▁들지	-12086
▁류준	-12087
▁마인	-12088
▁만년	-12089
▁매력	-12090
▁매립	-12091
▁멘토	-12092
▁목사	-12093
▁몰랐	-12094
▁미나	-12095
▁바꿀	-12096
▁발령	-12097
▁보름	-12098
▁복용	-12099
▁북핵	-12100
▁불필	-12101
▁붙인	-12102
▁비방	-12103
▁뽑은	-12104
▁사적	-12105
▁산인	-12106
▁생리	-12107
▁서남	-12108
▁석탄	-12109
▁성의	-12110
▁섹시	-12111
▁소형	-12112
▁수중	-12113
▁스콜	-12114
▁스콧	-12115
▁시호	-12116
▁신조	-12117
▁아담	-12118
▁안기	-12119
▁않자	-12120
▁앞뒤	-12121
▁애초	-12122
▁야간	-12123
▁양보	-12124
▁어쩌	-12125
▁여진	-12126
▁연상	-12127
▁연희	-12128
▁열대	-12129
▁오비	-12130
▁올림	-12131
▁와인	-12132
▁요약	-12133
▁용어	-12134
▁용이	-12135
▁유시	-12136
▁유통	-12137
▁윤치	-12138
▁은하	-12139
▁의문	-12140
▁이견	-12141
▁이병	-12142
▁잔류	-12143
▁장제	-12144
▁재발	-12145
▁재즈	-12146
▁재팬	-12147
▁재해	-12148
▁전당	-12149
▁제니	-12150
▁종은	-12151
▁좌석	-12152
▁주위	-12153
▁주파	-12154
▁증여	-12155
▁지는	-12156
▁지위	-12157
▁차로	-12158
▁차용	-12159
▁창간	-12160
▁책의	-12161
▁청동	-12162
▁초월	-12163
▁출국	-12164
▁치른	-12165
▁치매	-12166
▁콘셉	-12167
▁타디	-12168
▁테일	-12169
▁테크	-12170
▁표방	-12171
▁플레	-12172
▁하겠	-12173
▁하려	-12174
▁하세	-12175
▁하얀	-12176
▁한달	-12177
▁한자	-12178
▁해구	-12179
▁해머	-12180
▁햄릿	-12181
▁호는	-12182
▁호수	-12183
▁횡령	-12184
▁흥미	-12185
▁흩어	-12186
계획을	-12187
교육을	-12188
났지만	-12189
는지에	-12190
대통령	-12191
라이터	-12192
로에서	-12193
마르크	-12194
생으로	-12195
웠다고	-12196
중이다	-12197
테스트	-12198
편으로	-12199
하자면	-12200
화하고	-12201
▁가볍게	-12202
▁가설을	-12203
▁가했다	-12204
▁각국의	-12205
▁검찰의	-12206
▁경제성	-12207
▁경향을	-12208
▁교육의	-12209
▁국내에	-12210
▁국민을	-12211
▁국제적	-12212
▁그림을	-12213
▁그만두	-12214
▁급격한	-12215
▁끼쳤다	-12216
▁나타내	-12217
▁내리고	-12218
▁넘어가	-12219
▁넣었다	-12220
▁느끼는	-12221
▁당연히	-12222
▁대표를	-12223
▁댓글을	-12224
▁더이상	-12225
▁덕혜옹	-12226
▁던지는	-12227
▁독일이	-12228
▁돌려보	-12229
▁드러내	-12230
▁로베르	-12231
▁리더십	-12232
▁맞추어	-12233
▁먹이로	-12234
▁물품을	-12235
▁미드필	-12236
▁미치지	-12237
▁민중의	-12238
▁밑에서	-12239
▁바르셀	-12240
▁박영효	-12241
▁반발을	-12242
▁반유대	-12243
▁밝혀진	-12244
▁방법에	-12245
▁본선에	-12246
▁북쪽의	-12247
▁비용이	-12248
▁비율이	-12249
▁비틀즈	-12250
▁비행기	-12251
▁사건과	-12252
▁사람과	-12253
▁사역을	-12254
▁사진이	-12255
▁새벽에	-12256
▁생각할	-12257
▁서둘러	-12258
▁서바이	-12259
▁서울로	-12260
▁성적은	-12261
▁성적이	-12262
▁수준을	-12263
▁시신을	-12264
▁시장에	-12265
▁시장의	-12266
▁아랍어	-12267
▁안무를	-12268
▁안전한	-12269
▁않아도	-12270
▁않았을	-12271
▁알았다	-12272
▁암컷은	-12273
▁압박을	-12274
▁애틀랜	-12275
▁어렵게	-12276
▁얻으며	-12277
▁에이스	-12278
▁연관이	-12279
▁연달아	-12280
▁우승한	-12281
▁원세훈	-12282
▁위치가	-12283
▁유격수	-12284
▁유지광	-12285
▁이것에	-12286
▁이곳에	-12287
▁이룬다	-12288
▁자국의	-12289
▁자세를	-12290
▁장군이	-12291
▁재정적	-12292
▁전국의	-12293
▁전원이	-12294
▁전태일	-12295
▁조선인	-12296
▁조용필	-12297
▁종교는	-12298
▁지명을	-12299
▁지원이	-12300
▁지켜보	-12301
▁진술을	-12302
▁참석한	-12303
▁처분을	-12304
▁천문학	-12305
▁최순실	-12306
▁출전을	-12307
▁출판된	-12308
▁취했다	-12309
▁치열한	-12310
▁크로아	-12311
▁탈분극	-12312
▁투수가	-12313
▁투표를	-12314
▁팀으로	-12315
▁패러다	-12316
▁퍼센트	-12317
▁펼쳐진	-12318
▁폭넓은	-12319
▁표면의	-12320
▁피안타	-12321
▁해달은	-12322
▁행사가	-12323
▁행위는	-12324
▁헌법은	-12325
▁혐의가	-12326
▁협상이	-12327
▁황태자	-12328
▁회장의	-12329
▁후자의	-12330
경기에서	-12331
받았으며	-12332
선거에서	-12333
▁것으로서	-12334
▁결승선을	-12335
▁계속되는	-12336
▁고려하여	-12337
▁공격으로	-12338
▁구스타브	-12339
▁국가인권	-12340
▁귀신고래	-12341
▁그녀에게	-12342
▁그룹으로	-12343
▁기록이다	-12344
▁기자들이	-12345
▁년대에는	-12346
▁다음날인	-12347
▁대변인은	-12348
▁둘러싸고	-12349
▁드레퓌스	-12350
▁디자인을	-12351
▁떨어졌다	-12352
▁로트너는	-12353
▁리패키지	-12354
▁명이었다	-12355
▁모양으로	-12356
▁바티스타	-12357
▁박보영은	-12358
▁받으면서	-12359
▁발생하자	-12360
▁배치되어	-12361
▁백성들의	-12362
▁부족으로	-12363
▁불리기도	-12364
▁브라이언	-12365
▁비판적인	-12366
▁선고했다	-12367
▁선수들의	-12368
▁세브란스	-12369
▁소련군의	-12370
▁순위에서	-12371
▁스타일을	-12372
▁스트리트	-12373
▁시베리아	-12374
▁시작하는	-12375
▁아마추어	-12376
▁아버지인	-12377
▁아이들이	-12378
▁아직까지	-12379
▁얻었으며	-12380
▁위원회의	-12381
▁위키백과	-12382
▁의원들은	-12383
▁의원들이	-12384
▁이용해서	-12385
▁인정받아	-12386
▁인정하는	-12387
▁일어나자	-12388
▁작품이다	-12389
▁장악하고	-12390
▁조선총독	-12391
▁존재하며	-12392
▁중요하게	-12393
▁지적한다	-12394
▁출전하여	-12395
▁캄파니아	-12396
▁타마르의	-12397
▁트로이아	-12398
▁포켓몬을	-12399
▁포함한다	-12400
▁하세가와	-12401
▁한효주는	-12402
▁형성하고	-12403
▁화이트삭	-12404
▁황교안은	-12405
▁효과적인	-12406
▁남아프리카	-12407
▁달성하였다	-12408
▁매스스타트	-12409
▁발견하였다	-12410
▁비스마르크	-12411
▁요구하였다	-12412
▁요청하였다	-12413
▁전통적으로	-12414
▁제작되었다	-12415
▁케임브리지	-12416
▁평균자책점	-12417
▁프로그램에	-12418
▁프로이센의	-12419
▁획득하였다	-12420
▁대통령비서실	-12421
▁유나이티드의	-12422
▁펜실베이니아	-12423
▁아우구스투스가	-12424
▁엔터테인먼트는	-12425
▁ó	-12426
▁′	-12427
▁平	-12428
▁굶	-12429
▁꼼	-12430
▁룸	-12431
▁슛	-12432
▁얽	-12433
▁엿	-12434
▁웰	-12435
▁풋	-12436
▁헛	-12437
가인	-12438
각이	-12439
거스	-12440
경비	-12441
관련	-12442
교환	-12443
궁을	-12444
규가	-12445
그러	-12446
기소	-12447
끼를	-12448
나고	-12449
노예	-12450
느라	-12451
더를	-12452
란은	-12453
란트	-12454
런스	-12455
로동	-12456
로우	-12457
로워	-12458
릭스	-12459
릴라	-12460
말라	-12461
먼은	-12462
무스	-12463
반이	-12464
배가	-12465
볼라	-12466
부족	-12467
살렘	-12468
생명	-12469
수아	-12470
시피	-12471
업은	-12472
역과	-12473
열의	-12474
욕을	-12475
윤리	-12476
의정	-12477
임금	-12478
작가	-12479
작인	-12480
전략	-12481
정권	-12482
정왕	-12483
조리	-12484
조치	-12485
죄로	-12486
지연	-12487
직원	-12488
차와	-12489
창극	-12490
창을	-12491
최고	-12492
층에	-12493
치면	-12494
카는	-12495
통감	-12496
티넘	-12497
파르	-12498
하곤	-12499
하셨	-12500
허가	-12501
▁감상	-12502
▁개는	-12503
▁개와	-12504
▁개찰	-12505
▁걸고	-12506
▁견훤	-12507
▁경무	-12508
▁계곡	-12509
▁골로	-12510
▁골키	-12511
▁공민	-12512
▁광촉	-12513
▁구타	-12514
▁구형	-12515
▁군부	-12516
▁글래	-12517
▁금액	-12518
▁급여	-12519
▁기로	-12520
▁김명	-12521
▁김지	-12522
▁김택	-12523
▁나눈	-12524
▁날을	-12525
▁내란	-12526
▁노란	-12527
▁농구	-12528
▁놓은	-12529
▁니키	-12530
▁단절	-12531
▁당황	-12532
▁대에	-12533
▁데모	-12534
▁도구	-12535
▁도는	-12536
▁도래	-12537
▁도심	-12538
▁동지	-12539
▁따온	-12540
▁딸이	-12541
▁떠날	-12542
▁뚫고	-12543
▁레인	-12544
▁마린	-12545
▁마카	-12546
▁마테	-12547
▁말과	-12548
▁맺어	-12549
▁무지	-12550
▁미러	-12551
▁미스	-12552
▁반감	-12553
▁반납	-12554
▁발음	-12555
▁방화	-12556
▁배에	-12557
▁부러	-12558
▁불만	-12559
▁브레	-12560
▁삭감	-12561
▁삼촌	-12562
▁샀다	-12563
▁상기	-12564
▁상주	-12565
▁샤이	-12566
▁설도	-12567
▁섭취	-12568
▁성모	-12569
▁성벽	-12570
▁쇼핑	-12571
▁수면	-12572
▁슬픔	-12573
▁습득	-12574
▁승용	-12575
▁시경	-12576
▁신생	-12577
▁신시	-12578
▁쌍성	-12579
▁아끼	-12580
▁앓고	-12581
▁양측	-12582
▁에디	-12583
▁연못	-12584
▁오공	-12585
▁오클	-12586
▁외모	-12587
▁용병	-12588
▁운항	-12589
▁원동	-12590
▁원전	-12591
▁위와	-12592
▁위탁	-12593
▁유병	-12594
▁유아	-12595
▁유한	-12596
▁이방	-12597
▁이천	-12598
▁인당	-12599
▁일리	-12600
▁임대	-12601
▁임용	-12602
▁임화	-12603
▁입양	-12604
▁장편	-12605
▁전세	-12606
▁전액	-12607
▁점검	-12608
▁정해	-12609
▁조화	-12610
▁종을	-12611
▁주자	-12612
▁죽어	-12613
▁줄여	-12614
▁중엽	-12615
▁증후	-12616
▁진동	-12617
▁짓는	-12618
▁징계	-12619
▁채워	-12620
▁천도	-12621
▁철폐	-12622
▁청춘	-12623
▁치세	-12624
▁친박	-12625
▁콘돈	-12626
▁터널	-12627
▁토룹	-12628
▁판정	-12629
▁패로	-12630
▁퍼시	-12631
▁편을	-12632
▁펼친	-12633
▁평행	-12634
▁폭파	-12635
▁표출	-12636
▁플랜	-12637
▁피력	-12638
▁하마	-12639
▁하코	-12640
▁함경	-12641
▁함은	-12642
▁해가	-12643
▁해왕	-12644
▁현악	-12645
▁협정	-12646
▁호의	-12647
▁호함	-12648
▁혼혈	-12649
▁환자	-12650
▁황후	-12651
갔으나	-12652
거리를	-12653
경으로	-12654
공격을	-12655
군에서	-12656
끄러운	-12657
느냐는	-12658
다니며	-12659
단체의	-12660
르시엘	-12661
리스의	-12662
바키아	-12663
브리아	-12664
스테르	-12665
안에서	-12666
업으로	-12667
전에는	-12668
제국의	-12669
쳤으나	-12670
품으로	-12671
협정을	-12672
▁가지의	-12673
▁개념은	-12674
▁거두지	-12675
▁건물의	-12676
▁검은색	-12677
▁것들을	-12678
▁게스트	-12679
▁결정한	-12680
▁경전철	-12681
▁경제는	-12682
▁경찰청	-12683
▁공개한	-12684
▁공동체	-12685
▁공로로	-12686
▁교회를	-12687
▁구조에	-12688
▁국적을	-12689
▁군대에	-12690
▁그래픽	-12691
▁극적인	-12692
▁근거를	-12693
▁기반한	-12694
▁기술은	-12695
▁길이가	-12696
▁끔찍한	-12697
▁내부에	-12698
▁내세워	-12699
▁노력이	-12700
▁누르고	-12701
▁다녔다	-12702
▁다니는	-12703
▁닥터의	-12704
▁단계에	-12705
▁담배를	-12706
▁당국이	-12707
▁대회는	-12708
▁대회의	-12709
▁도시에	-12710
▁독일을	-12711
▁떠나는	-12712
▁떨어뜨	-12713
▁뜻한다	-12714
▁라이블	-12715
▁로맨스	-12716
▁로맨틱	-12717
▁리비아	-12718
▁마르세	-12719
▁마리를	-12720
▁매력을	-12721
▁머리가	-12722
▁메모리	-12723
▁명칭이	-12724
▁명확히	-12725
▁몰랐다	-12726
▁무역을	-12727
▁무장한	-12728
▁물질은	-12729
▁뮤지션	-12730
▁미끄러	-12731
▁바다에	-12732
▁바르샤	-12733
▁박사가	-12734
▁반격을	-12735
▁발표를	-12736
▁배우가	-12737
▁배터리	-12738
▁밴드의	-12739
▁보편적	-12740
▁볼셰비	-12741
▁부정부	-12742
▁북한을	-12743
▁비서관	-12744
▁비율은	-12745
▁비하여	-12746
▁사례가	-12747
▁사상의	-12748
▁사업에	-12749
▁사용자	-12750
▁상원의	-12751
▁서울을	-12752
▁선보인	-12753
▁선언을	-12754
▁성경을	-12755
▁소속팀	-12756
▁소화해	-12757
▁수보로	-12758
▁순위를	-12759
▁스태프	-12760
▁승리는	-12761
▁시냅스	-12762
▁신정부	-12763
▁실시된	-12764
▁실패를	-12765
▁쏘나타	-12766
▁아라곤	-12767
▁아르메	-12768
▁아이튠	-12769
▁아폴로	-12770
▁알리고	-12771
▁에라스	-12772
▁여파로	-12773
▁연대기	-12774
▁영친왕	-12775
▁예로는	-12776
▁오하이	-12777
▁왔으며	-12778
▁외에는	-12779
▁요새를	-12780
▁우려를	-12781
▁위원장	-12782
▁유지할	-12783
▁음반에	-12784
▁의석을	-12785
▁이제는	-12786
▁인간과	-12787
▁인민군	-12788
▁인정을	-12789
▁있으니	-12790
▁자랐다	-12791
▁작용을	-12792
▁장거리	-12793
▁전세계	-12794
▁정당한	-12795
▁정도는	-12796
▁정하고	-12797
▁주도로	-12798
▁주었고	-12799
▁죽임을	-12800
▁중앙의	-12801
▁직후인	-12802
▁진출한	-12803
▁진행을	-12804
▁집단이	-12805
▁초부터	-12806
▁촬영한	-12807
▁친구가	-12808
▁카시니	-12809
▁클레오	-12810
▁탁월한	-12811
▁토지를	-12812
▁통제를	-12813
▁트랙을	-12814
▁판타지	-12815
▁페드로	-12816
▁포로로	-12817
▁폭스는	-12818
▁플라즈	-12819
▁피에르	-12820
▁하려는	-12821
▁핵실험	-12822
▁행성은	-12823
▁협의를	-12824
▁화학적	-12825
▁회사를	-12826
▁휴대전	-12827
▁흩어져	-12828
이라고도	-12829
적이라는	-12830
▁가능성은	-12831
▁가져왔다	-12832
▁각지에서	-12833
▁갈릴레이	-12834
▁개월만에	-12835
▁개체수는	-12836
▁관련해서	-12837
▁근본적인	-12838
▁금지하는	-12839
▁나가사키	-12840
▁내에서는	-12841
▁내용으로	-12842
▁노바라는	-12843
▁단과대학	-12844
▁대선에서	-12845
▁도시에서	-12846
▁들어가게	-12847
▁뛰어넘는	-12848
▁마르쿠스	-12849
▁맡았으며	-12850
▁멤버들의	-12851
▁무르시엘	-12852
▁받았다는	-12853
▁변희재는	-12854
▁보고했다	-12855
▁브루클린	-12856
▁비욘세의	-12857
▁서쪽으로	-12858
▁시나리오	-12859
▁않는다면	-12860
▁없었는데	-12861
▁우리나라	-12862
▁월부터는	-12863
▁육군사관	-12864
▁이라고도	-12865
▁이미지가	-12866
▁이집트의	-12867
▁조정에서	-12868
▁지구에서	-12869
▁진보신당	-12870
▁총사령관	-12871
▁함부르크	-12872
▁공개하였다	-12873
▁긍정적으로	-12874
▁다큐멘터리	-12875
▁라운드에서	-12876
▁라이프니츠	-12877
▁말레이시아	-12878
▁복귀하였다	-12879
▁연기하였다	-12880
▁일각에서는	-12881
▁참가하였다	-12882
▁포함되었다	-12883
▁프로그램은	-12884
▁플로지스톤	-12885
▁무르시엘라고	-12886
▁뮤직비디오를	-12887
▁천문학자들은	-12888
▁유럽찌르레기는	-12889
▁」	-12890
▁不	-12891
▁明	-12892
▁法	-12893
▁神	-12894
▁西	-12895
▁떡	-12896
▁룩	-12897
▁몫	-12898
▁뭉	-12899
▁싹	-12900
▁쏠	-12901
▁앰	-12902
▁엣	-12903
▁쪼	-12904
▁퓨	-12905
▁헥	-12906
강한	-12907
개가	-12908
골에	-12909
공립	-12910
교와	-12911
군왕	-12912
군주	-12913
그는	-12914
그루	-12915
그맨	-12916
극의	-12917
근이	-12918
기며	-12919
기자	-12920
길레	-12921
났던	-12922
늦게	-12923
덕션	-12924
도덕	-12925
돌이	-12926
런은	-12927
런트	-12928
레타	-12929
리꾼	-12930
리면	-12931
링을	-12932
미술	-12933
민과	-12934
벌레	-12935
비시	-12936
사무	-12937
사범	-12938
사추	-12939
서도	-12940
설과	-12941
수소	-12942
신에	-12943
오던	-12944
우기	-12945
우에	-12946
움에	-12947
유지	-12948
자문	-12949
저장	-12950
전인	-12951
직은	-12952
짐에	-12953
카를	-12954
커가	-12955
키로	-12956
판사	-12957
포가	-12958
피의	-12959
하시	-12960
학부	-12961
할때	-12962
합의	-12963
협정	-12964
화문	-12965
▁가결	-12966
▁가중	-12967
▁간첩	-12968
▁갈아	-12969
▁감수	-12970
▁감찰	-12971
▁거북	-12972
▁건을	-12973
▁겹쳐	-12974
▁경연	-12975
▁공론	-12976
▁공천	-12977
▁구니	-12978
▁구약	-12979
▁국외	-12980
▁규슈	-12981
▁급증	-12982
▁김형	-12983
▁낙동	-12984
▁날에	-12985
▁내어	-12986
▁내포	-12987
▁냉전	-12988
▁넣고	-12989
▁년여	-12990
▁누르	-12991
▁니시	-12992
▁니혼	-12993
▁닛폰	-12994
▁단호	-12995
▁담아	-12996
▁덮여	-12997
▁동굴	-12998
▁동년	-12999
▁드리	-13000
▁딸을	-13001
▁라몬	-13002
▁루스	-13003
▁루즈	-13004
▁루키	-13005
▁리비	-13006
▁매수	-13007
▁매체	-13008
▁맥락	-13009
▁맹세	-13010
▁메디	-13011
▁목에	-13012
▁몰고	-13013
▁무서	-13014
▁무스	-13015
▁문명	-13016
▁물의	-13017
▁미즈	-13018
▁박진	-13019
▁번번	-13020
▁번호	-13021
▁법에	-13022
▁별의	-13023
▁별주	-13024
▁부재	-13025
▁부착	-13026
▁분경	-13027
▁분비	-13028
▁분해	-13029
▁브룩	-13030
▁사장	-13031
▁사지	-13032
▁사촌	-13033
▁상담	-13034
▁서적	-13035
▁섬에	-13036
▁섭외	-13037
▁세그	-13038
▁세션	-13039
▁시그	-13040
▁시정	-13041
▁신봉	-13042
▁신선	-13043
▁신천	-13044
▁심상	-13045
▁쓰게	-13046
▁쓰기	-13047
▁아랫	-13048
▁아부	-13049
▁아서	-13050
▁아오	-13051
▁앉아	-13052
▁알앤	-13053
▁암석	-13054
▁앞둔	-13055
▁애덤	-13056
▁앤더	-13057
▁양육	-13058
▁엇갈	-13059
▁여년	-13060
▁역의	-13061
▁연소	-13062
▁오세	-13063
▁왕을	-13064
▁왜성	-13065
▁용산	-13066
▁우회	-13067
▁원격	-13068
▁유언	-13069
▁육박	-13070
▁육지	-13071
▁응급	-13072
▁응시	-13073
▁인가	-13074
▁인격	-13075
▁임상	-13076
▁입사	-13077
▁자작	-13078
▁정면	-13079
▁정서	-13080
▁조르	-13081
▁주동	-13082
▁주먹	-13083
▁주역	-13084
▁징수	-13085
▁쪽에	-13086
▁차츰	-13087
▁착취	-13088
▁창시	-13089
▁채취	-13090
▁청소	-13091
▁촉발	-13092
▁출처	-13093
▁친정	-13094
▁콜린	-13095
▁타협	-13096
▁태조	-13097
▁탱탱	-13098
▁터뜨	-13099
▁토크	-13100
▁통칭	-13101
▁퇴장	-13102
▁편곡	-13103
▁포식	-13104
▁풍속	-13105
▁피로	-13106
▁피플	-13107
▁학제	-13108
▁한스	-13109
▁한인	-13110
▁핵분	-13111
▁혜성	-13112
▁혼동	-13113
▁황실	-13114
▁힘은	-13115
겠지만	-13116
기관의	-13117
께서는	-13118
노미야	-13119
노스케	-13120
달라는	-13121
대학을	-13122
더스푼	-13123
라이트	-13124
레이터	-13125
루살렘	-13126
사건을	-13127
스타일	-13128
시대에	-13129
오스트	-13130
자금을	-13131
자료를	-13132
정당은	-13133
조직의	-13134
크에서	-13135
했기에	-13136
협의회	-13137
▁개체가	-13138
▁건설을	-13139
▁게이트	-13140
▁결합을	-13141
▁계획의	-13142
▁고래상	-13143
▁골자로	-13144
▁광촉매	-13145
▁그러다	-13146
▁그리는	-13147
▁기간은	-13148
▁나란히	-13149
▁나타날	-13150
▁남부의	-13151
▁년대의	-13152
▁노르만	-13153
▁놓았다	-13154
▁누리꾼	-13155
▁다시금	-13156
▁달라이	-13157
▁달러로	-13158
▁대단한	-13159
▁대서양	-13160
▁대표의	-13161
▁동등한	-13162
▁동인도	-13163
▁두각을	-13164
▁득표율	-13165
▁듯하다	-13166
▁만점에	-13167
▁매카트	-13168
▁머물렀	-13169
▁멤버로	-13170
▁모양이	-13171
▁무리한	-13172
▁문화와	-13173
▁미군의	-13174
▁바꾸고	-13175
▁바뀌어	-13176
▁박보검	-13177
▁받아서	-13178
▁방대한	-13179
▁배치를	-13180
▁밴드는	-13181
▁번으로	-13182
▁법원의	-13183
▁벗어난	-13184
▁보고가	-13185
▁보낸다	-13186
▁보위의	-13187
▁본인은	-13188
▁빅토르	-13189
▁사단이	-13190
▁사례를	-13191
▁새끼는	-13192
▁서양의	-13193
▁선수들	-13194
▁세력은	-13195
▁세상의	-13196
▁셈이다	-13197
▁소련이	-13198
▁손상을	-13199
▁쇼케이	-13200
▁수상을	-13201
▁수입을	-13202
▁스릴러	-13203
▁스미스	-13204
▁슬라이	-13205
▁시간과	-13206
▁시기는	-13207
▁시설을	-13208
▁시장이	-13209
▁신사임	-13210
▁신입생	-13211
▁쓰레기	-13212
▁아무리	-13213
▁아이오	-13214
▁야구를	-13215
▁여겼다	-13216
▁여러분	-13217
▁여성에	-13218
▁여자가	-13219
▁연습을	-13220
▁열차는	-13221
▁왕건은	-13222
▁왕국은	-13223
▁용어는	-13224
▁원리를	-13225
▁이기고	-13226
▁이들과	-13227
▁이르게	-13228
▁이해를	-13229
▁인도의	-13230
▁인정한	-13231
▁인해서	-13232
▁일본군	-13233
▁일자로	-13234
▁일하는	-13235
▁있기에	-13236
▁자체의	-13237
▁작업은	-13238
▁장비를	-13239
▁전기를	-13240
▁정도에	-13241
▁정치권	-13242
▁존재로	-13243
▁주어진	-13244
▁주의를	-13245
▁죽이는	-13246
▁중앙집	-13247
▁지급을	-13248
▁지나가	-13249
▁지방을	-13250
▁지배를	-13251
▁지역구	-13252
▁지중해	-13253
▁지휘를	-13254
▁진보적	-13255
▁진실을	-13256
▁질량을	-13257
▁집단의	-13258
▁집회를	-13259
▁참고로	-13260
▁청계천	-13261
▁초창기	-13262
▁칼리스	-13263
▁태어날	-13264
▁테일러	-13265
▁토르의	-13266
▁특수한	-13267
▁특징이	-13268
▁파일럿	-13269
▁판매를	-13270
▁패트리	-13271
▁표면을	-13272
▁표현이	-13273
▁플라스	-13274
▁하루에	-13275
▁함대는	-13276
▁해마다	-13277
▁호함파	-13278
▁활동과	-13279
▁후사르	-13280
▁힘으로	-13281
음으로써	-13282
주의적인	-13283
학자들의	-13284
▁강조하며	-13285
▁개념으로	-13286
▁거주하는	-13287
▁것이지만	-13288
▁경기장을	-13289
▁관해서는	-13290
▁국무위원	-13291
▁국제공항	-13292
▁그렇다고	-13293
▁기여했다	-13294
▁내세웠다	-13295
▁대대적인	-13296
▁드래프트	-13297
▁디오니소	-13298
▁로마에서	-13299
▁마지막에	-13300
▁말하면서	-13301
▁명확하게	-13302
▁방문했다	-13303
▁방지하기	-13304
▁버전으로	-13305
▁보고서를	-13306
▁브라우저	-13307
▁비틀즈의	-13308
▁사회과학	-13309
▁수록되어	-13310
▁스포일러	-13311
▁심각하게	-13312
▁심사위원	-13313
▁심지어는	-13314
▁아라비아	-13315
▁아버지를	-13316
▁아이들은	-13317
▁안전하게	-13318
▁않겠다고	-13319
▁알려지게	-13320
▁요코하마	-13321
▁이어갔다	-13322
▁이후로도	-13323
▁자신만의	-13324
▁정책으로	-13325
▁제공하고	-13326
▁진술했다	-13327
▁찌르레기	-13328
▁참여하고	-13329
▁총대주교	-13330
▁추정되고	-13331
▁캐릭터가	-13332
▁콘크리트	-13333
▁타일러의	-13334
▁파리에서	-13335
▁플래티넘	-13336
▁허위사실	-13337
▁환경영향	-13338
▁활동하던	-13339
▁활발하게	-13340
▁후쿠오카	-13341
▁히틀러가	-13342
▁감독이었던	-13343
▁광범위하게	-13344
▁기록했으며	-13345
▁나카모리의	-13346
▁대한민국이	-13347
▁람슈타인의	-13348
▁만슈타인이	-13349
▁무산되었다	-13350
▁배치되었다	-13351
▁베이비복스	-13352
▁설립되었다	-13353
▁설치되었다	-13354
▁시작했는데	-13355
▁신한청년당	-13356
▁자유한국당	-13357
▁자체적으로	-13358
▁추진하였다	-13359
▁하나님께서	-13360
▁한양대학교	-13361
▁안토니우스는	-13362
▁여우주연상을	-13363
▁오스트레일리아까치는	-13364
▁・	-13365
▁上	-13366
▁仁	-13367
▁保	-13368
▁太	-13369
▁냄	-13370
▁밸	-13371
▁쑨	-13372
▁엮	-13373
▁웬	-13374
▁탔	-13375
가르	-13376
강도	-13377
고기	-13378
교가	-13379
권도	-13380
금과	-13381
너지	-13382
네가	-13383
네노	-13384
녀의	-13385
노바	-13386
늑대	-13387
달의	-13388
더릭	-13389
더와	-13390
독재	-13391
라리	-13392
락의	-13393
령과	-13394
로이	-13395
록에	-13396
롭고	-13397
류로	-13398
리도	-13399
리츠	-13400
림과	-13401
링턴	-13402
묘한	-13403
무늬	-13404
미쓰	-13405
반을	-13406
반의	-13407
발표	-13408
비한	-13409
산은	-13410
세트	-13411
소울	-13412
수지	-13413
수표	-13414
악을	-13415
외선	-13416
운전	-13417
이치	-13418
인해	-13419
종합	-13420
주쿠	-13421
주택	-13422
준의	-13423
즈로	-13424
지사	-13425
췄다	-13426
치료	-13427
카드	-13428
테러	-13429
티의	-13430
파구	-13431
파냐	-13432
프러	-13433
해보	-13434
행동	-13435
헌법	-13436
훈을	-13437
히트	-13438
▁가짜	-13439
▁각룡	-13440
▁간신	-13441
▁개항	-13442
▁거머	-13443
▁게르	-13444
▁겨냥	-13445
▁격려	-13446
▁결렬	-13447
▁고쳐	-13448
▁과장	-13449
▁교량	-13450
▁구금	-13451
▁군과	-13452
▁굳건	-13453
▁귀여	-13454
▁급성	-13455
▁기성	-13456
▁기의	-13457
▁길로	-13458
▁김은	-13459
▁김홍	-13460
▁까닭	-13461
▁난징	-13462
▁내며	-13463
▁내주	-13464
▁년제	-13465
▁늦은	-13466
▁다투	-13467
▁당신	-13468
▁대명	-13469
▁대피	-13470
▁데시	-13471
▁도메	-13472
▁독창	-13473
▁돋보	-13474
▁동정	-13475
▁두는	-13476
▁뒤따	-13477
▁듀얼	-13478
▁따를	-13479
▁땅의	-13480
▁로만	-13481
▁루터	-13482
▁리바	-13483
▁링컨	-13484
▁만을	-13485
▁만이	-13486
▁매번	-13487
▁맹활	-13488
▁메탈	-13489
▁멘델	-13490
▁명목	-13491
▁모의	-13492
▁몰두	-13493
▁몽타	-13494
▁무방	-13495
▁무의	-13496
▁미미	-13497
▁바코	-13498
▁박상	-13499
▁박현	-13500
▁받던	-13501
▁백련	-13502
▁번대	-13503
▁법원	-13504
▁법이	-13505
▁베타	-13506
▁북측	-13507
▁불쾌	-13508
▁비대	-13509
▁비싸	-13510
▁살게	-13511
▁상세	-13512
▁서북	-13513
▁섞여	-13514
▁선장	-13515
▁손실	-13516
▁수족	-13517
▁수확	-13518
▁순조	-13519
▁승계	-13520
▁신곡	-13521
▁신동	-13522
▁실존	-13523
▁아미	-13524
▁앞의	-13525
▁양극	-13526
▁양식	-13527
▁어거	-13528
▁에밀	-13529
▁여명	-13530
▁연료	-13531
▁열광	-13532
▁열을	-13533
▁예고	-13534
▁왕과	-13535
▁우르	-13536
▁우호	-13537
▁월말	-13538
▁유교	-13539
▁유성	-13540
▁유연	-13541
▁은폐	-13542
▁은혜	-13543
▁이광	-13544
▁이륜	-13545
▁이세	-13546
▁이태	-13547
▁이현	-13548
▁인의	-13549
▁읽고	-13550
▁자문	-13551
▁자제	-13552
▁자폐	-13553
▁잡을	-13554
▁장미	-13555
▁전격	-13556
▁정벌	-13557
▁정성	-13558
▁정일	-13559
▁제보	-13560
▁제트	-13561
▁조로	-13562
▁조반	-13563
▁조세	-13564
▁조연	-13565
▁주권	-13566
▁증오	-13567
▁진공	-13568
▁차관	-13569
▁초등	-13570
▁최신	-13571
▁치루	-13572
▁카라	-13573
▁커넥	-13574
▁키스	-13575
▁타우	-13576
▁타원	-13577
▁통용	-13578
▁퇴진	-13579
▁트라	-13580
▁틀림	-13581
▁판별	-13582
▁패해	-13583
▁풍자	-13584
▁피에	-13585
▁하타	-13586
▁한해	-13587
▁항변	-13588
▁햇볕	-13589
▁행진	-13590
▁헤어	-13591
▁혈통	-13592
갔다고	-13593
교육과	-13594
궁에서	-13595
됐다는	-13596
되므로	-13597
드라마	-13598
루미늄	-13599
림으로	-13600
미디어	-13601
서에는	-13602
시간을	-13603
왔지만	-13604
웨이는	-13605
작업을	-13606
작전을	-13607
조약을	-13608
주의로	-13609
지지만	-13610
키스탄	-13611
테이션	-13612
티넨탈	-13613
하게도	-13614
▁가능성	-13615
▁강하다	-13616
▁거리의	-13617
▁거부한	-13618
▁거슬러	-13619
▁겁니다	-13620
▁경기의	-13621
▁경우를	-13622
▁고구려	-13623
▁고종의	-13624
▁곡이다	-13625
▁골키퍼	-13626
▁관계의	-13627
▁관직을	-13628
▁광종은	-13629
▁교회는	-13630
▁구조로	-13631
▁권위를	-13632
▁그보다	-13633
▁글러브	-13634
▁기소된	-13635
▁기업이	-13636
▁끌었다	-13637
▁끝내기	-13638
▁년대와	-13639
▁노동당	-13640
▁노선이	-13641
▁누군가	-13642
▁눈물을	-13643
▁다루고	-13644
▁단백질	-13645
▁단체인	-13646
▁당나라	-13647
▁당하게	-13648
▁당하는	-13649
▁대법원	-13650
▁대전이	-13651
▁대중적	-13652
▁대표와	-13653
▁도입된	-13654
▁독일인	-13655
▁동맹의	-13656
▁두꺼운	-13657
▁뒤에서	-13658
▁들어올	-13659
▁떠난다	-13660
▁레이다	-13661
▁마리로	-13662
▁많으며	-13663
▁모로는	-13664
▁모조리	-13665
▁무죄를	-13666
▁문화가	-13667
▁물질을	-13668
▁미군이	-13669
▁미세먼	-13670
▁민중총	-13671
▁발언은	-13672
▁배우는	-13673
▁베네치	-13674
▁볼티모	-13675
▁봉기를	-13676
▁부리그	-13677
▁부진을	-13678
▁북유럽	-13679
▁분석한	-13680
▁붙이는	-13681
▁사용이	-13682
▁살았던	-13683
▁선택을	-13684
▁설치된	-13685
▁설치를	-13686
▁손으로	-13687
▁수사에	-13688
▁숫자는	-13689
▁시기의	-13690
▁시위가	-13691
▁신경을	-13692
▁아길레	-13693
▁않으나	-13694
▁얼음이	-13695
▁엔진을	-13696
▁여명이	-13697
▁여부에	-13698
▁여성은	-13699
▁여지가	-13700
▁연기로	-13701
▁연예계	-13702
▁연주를	-13703
▁영국군	-13704
▁영향은	-13705
▁예수회	-13706
▁오가는	-13707
▁오로지	-13708
▁오르게	-13709
▁완성된	-13710
▁외국어	-13711
▁요구한	-13712
▁운동과	-13713
▁운행이	-13714
▁유럽에	-13715
▁유로파	-13716
▁유학을	-13717
▁의문이	-13718
▁의미의	-13719
▁이기붕	-13720
▁이뤄진	-13721
▁일정을	-13722
▁일행은	-13723
▁임명된	-13724
▁작가의	-13725
▁저조한	-13726
▁저항을	-13727
▁적었다	-13728
▁전력을	-13729
▁전투의	-13730
▁접하고	-13731
▁정책과	-13732
▁정책이	-13733
▁제작을	-13734
▁즉위한	-13735
▁증언에	-13736
▁차지해	-13737
▁천체의	-13738
▁촬영이	-13739
▁추가된	-13740
▁치렀다	-13741
▁토요일	-13742
▁투수로	-13743
▁파괴된	-13744
▁페트로	-13745
▁포격을	-13746
▁표했다	-13747
▁학문적	-13748
▁헨리에	-13749
▁형태는	-13750
▁환경을	-13751
▁황위에	-13752
▁황제인	-13753
▁훌린의	-13754
▁흐름이	-13755
▁희생자	-13756
▁히트를	-13757
국제공항	-13758
당하였다	-13759
상으로는	-13760
지역으로	-13761
▁가경제는	-13762
▁간격으로	-13763
▁게임에서	-13764
▁공화국을	-13765
▁관련되어	-13766
▁구성하는	-13767
▁국민에게	-13768
▁극단적인	-13769
▁급속도로	-13770
▁기본으로	-13771
▁김아랑은	-13772
▁날카로운	-13773
▁년대까지	-13774
▁다양하게	-13775
▁다운로드	-13776
▁대중문화	-13777
▁대학교에	-13778
▁도시조는	-13779
▁드라마는	-13780
▁드라마의	-13781
▁들어가는	-13782
▁들어간다	-13783
▁들어왔다	-13784
▁미드필더	-13785
▁반대했다	-13786
▁백상예술	-13787
▁부산에서	-13788
▁블랙홀의	-13789
▁사건이다	-13790
▁사라지고	-13791
▁살아남은	-13792
▁살아있는	-13793
▁상태이다	-13794
▁소녀시대	-13795
▁소속되어	-13796
▁스트라이	-13797
▁시리즈를	-13798
▁시작하고	-13799
▁야마우치	-13800
▁여겨졌다	-13801
▁영역에서	-13802
▁예루살렘	-13803
▁오픈에서	-13804
▁오하이오	-13805
▁올라갔다	-13806
▁우루과이	-13807
▁우승했다	-13808
▁유지하는	-13809
▁음반으로	-13810
▁이미지로	-13811
▁임진왜란	-13812
▁있으면서	-13813
▁전적으로	-13814
▁점령하고	-13815
▁정통성을	-13816
▁중국으로	-13817
▁진입했다	-13818
▁진행하는	-13819
▁참가하여	-13820
▁코스프레	-13821
▁탈삼진을	-13822
▁파리강화	-13823
▁폴란드리	-13824
▁프랑스를	-13825
▁프랜시스	-13826
▁확실하게	-13827
▁활동하며	-13828
▁활약으로	-13829
시킴으로써	-13830
엔터테인먼	-13831
▁노력하였다	-13832
▁도착하였다	-13833
▁독립적으로	-13834
▁바르셀로나	-13835
▁반대하였다	-13836
▁비난하였다	-13837
▁사이에서는	-13838
▁이례적으로	-13839
▁입학하였다	-13840
▁정기적으로	-13841
▁지속되었다	-13842
▁차전에서는	-13843
▁출전하였다	-13844
▁칼리스토의	-13845
▁캐나다에서	-13846
▁크리스티나	-13847
▁페르디난트	-13848
▁프랑스군의	-13849
▁프랑스에서	-13850
▁현대자동차	-13851
▁현재까지도	-13852
▁확대되었다	-13853
▁유럽찌르레기	-13854
▁평균자책점을	-13855
▁스피드스케이팅	-13856
▁폴란드리투아니아	-13857
▁조선민주주의인민공화국의	-13858
▁ä	-13859
▁元	-13860
▁南	-13861
▁宗	-13862
▁成	-13863
▁白	-13864
▁꿰	-13865
▁닦	-13866
▁딕	-13867
▁멍	-13868
▁멩	-13869
▁뮌	-13870
▁솜	-13871
▁윙	-13872
▁짙	-13873
▁찔	-13874
▁캉	-13875
▁틴	-13876
가족	-13877
강목	-13878
고리	-13879
고은	-13880
긴다	-13881
났을	-13882
님의	-13883
다의	-13884
대왕	-13885
도사	-13886
두가	-13887
딩을	-13888
러드	-13889
련을	-13890
론적	-13891
만인	-13892
망의	-13893
면은	-13894
모양	-13895
목이	-13896
발의	-13897
백을	-13898
버리	-13899
비오	-13900
빙상	-13901
산과	-13902
산이	-13903
세기	-13904
수리	-13905
수산	-13906
시게	-13907
야는	-13908
예프	-13909
온을	-13910
와도	-13911
왕에	-13912
자키	-13913
장치	-13914
쟁을	-13915
주시	-13916
증과	-13917
지리	-13918
진압	-13919
질환	-13920
찬을	-13921
청개	-13922
츠를	-13923
칭을	-13924
커스	-13925
태에	-13926
토스	-13927
투표	-13928
헤이	-13929
▁가네	-13930
▁가쓰	-13931
▁간격	-13932
▁갇혀	-13933
▁거점	-13934
▁것의	-13935
▁겸임	-13936
▁경멸	-13937
▁고든	-13938
▁고시	-13939
▁공세	-13940
▁구경	-13941
▁국의	-13942
▁국한	-13943
▁그걸	-13944
▁극중	-13945
▁기쁨	-13946
▁김민	-13947
▁김주	-13948
▁나간	-13949
▁나눌	-13950
▁남미	-13951
▁남을	-13952
▁너머	-13953
▁넘지	-13954
▁넷째	-13955
▁농심	-13956
▁다비	-13957
▁다짐	-13958
▁대역	-13959
▁대위	-13960
▁데옹	-13961
▁델라	-13962
▁도출	-13963
▁듣기	-13964
▁들며	-13965
▁디젤	-13966
▁때를	-13967
▁라면	-13968
▁라자	-13969
▁로버	-13970
▁로켓	-13971
▁마의	-13972
▁마츠	-13973
▁막론	-13974
▁만날	-13975
▁만료	-13976
▁멜론	-13977
▁명도	-13978
▁모건	-13979
▁모금	-13980
▁묘호	-13981
▁무상	-13982
▁무작	-13983
▁묶어	-13984
▁반전	-13985
▁반항	-13986
▁배급	-13987
▁배로	-13988
▁버마	-13989
▁변환	-13990
▁별이	-13991
▁복종	-13992
▁분배	-13993
▁분을	-13994
▁브이	-13995
▁비싼	-13996
▁빛의	-13997
▁사나	-13998
▁사마	-13999
▁사직	-14000
▁산둥	-14001
▁산타	-14002
▁상경	-14003
▁상급	-14004
▁생겼	-14005
▁서포	-14006
▁선이	-14007
▁선인	-14008
▁선행	-14009
▁섬을	-14010
▁성균	-14011
▁성질	-14012
▁성체	-14013
▁성취	-14014
▁세네	-14015
▁세조	-14016
▁송혜	-14017
▁쇼와	-14018
▁수복	-14019
▁수인	-14020
▁시선	-14021
▁식사	-14022
▁신부	-14023
▁심은	-14024
▁쌓인	-14025
▁아픔	-14026
▁압력	-14027
▁앵커	-14028
▁양대	-14029
▁양심	-14030
▁업체	-14031
▁에글	-14032
▁연쇄	-14033
▁열정	-14034
▁오락	-14035
▁오지	-14036
▁올해	-14037
▁왕당	-14038
▁외래	-14039
▁용서	-14040
▁우에	-14041
▁울음	-14042
▁원조	-14043
▁유년	-14044
▁유타	-14045
▁유혈	-14046
▁의논	-14047
▁이질	-14048
▁입수	-14049
▁잉태	-14050
▁자위	-14051
▁잡는	-14052
▁장진	-14053
▁저하	-14054
▁적발	-14055
▁전복	-14056
▁점도	-14057
▁점진	-14058
▁제대	-14059
▁제중	-14060
▁제프	-14061
▁조립	-14062
▁종래	-14063
▁죄수	-14064
▁주립	-14065
▁주소	-14066
▁주오	-14067
▁주와	-14068
▁죽일	-14069
▁직선	-14070
▁집은	-14071
▁짓고	-14072
▁찾은	-14073
▁추출	-14074
▁출소	-14075
▁충주	-14076
▁친근	-14077
▁카스	-14078
▁칼로	-14079
▁콜롬	-14080
▁키워	-14081
▁태도	-14082
▁테레	-14083
▁테리	-14084
▁투신	-14085
▁트램	-14086
▁팀내	-14087
▁퍼뜨	-14088
▁페루	-14089
▁편견	-14090
▁하원	-14091
▁학위	-14092
▁한글	-14093
▁한창	-14094
▁해지	-14095
▁해프	-14096
▁회로	-14097
▁후렴	-14098
거리가	-14099
계급의	-14100
공화국	-14101
관현악	-14102
나에서	-14103
대회를	-14104
더스트	-14105
동적인	-14106
레스를	-14107
로이드	-14108
마저도	-14109
버트는	-14110
범으로	-14111
사이드	-14112
속으로	-14113
스럽고	-14114
스토폴	-14115
식간에	-14116
웨이의	-14117
중이던	-14118
직으로	-14119
책으로	-14120
판으로	-14121
프트를	-14122
해서는	-14123
▁가르쳐	-14124
▁가져온	-14125
▁가졌고	-14126
▁각지에	-14127
▁감사의	-14128
▁개월이	-14129
▁개혁에	-14130
▁거리는	-14131
▁건강한	-14132
▁게릴라	-14133
▁계속된	-14134
▁계열의	-14135
▁고대의	-14136
▁공수부	-14137
▁관광객	-14138
▁광고를	-14139
▁교통사	-14140
▁교향곡	-14141
▁교황은	-14142
▁구조의	-14143
▁구조적	-14144
▁국가적	-14145
▁규칙을	-14146
▁그나마	-14147
▁그래도	-14148
▁그러면	-14149
▁기금을	-14150
▁기술과	-14151
▁기초를	-14152
▁길이의	-14153
▁깨닫고	-14154
▁나라는	-14155
▁나서는	-14156
▁나서서	-14157
▁나에게	-14158
▁내세운	-14159
▁노래에	-14160
▁노부나	-14161
▁논란에	-14162
▁논의가	-14163
▁논쟁의	-14164
▁느낌이	-14165
▁단계로	-14166
▁단계를	-14167
▁답변을	-14168
▁대회가	-14169
▁데이브	-14170
▁도마뱀	-14171
▁도시가	-14172
▁독립협	-14173
▁동대문	-14174
▁동로마	-14175
▁되어야	-14176
▁드물게	-14177
▁똑같이	-14178
▁로렌스	-14179
▁만장을	-14180
▁만주족	-14181
▁만화가	-14182
▁말에서	-14183
▁면적은	-14184
▁명백한	-14185
▁목표가	-14186
▁무너뜨	-14187
▁무사히	-14188
▁밀리언	-14189
▁바꾸는	-14190
▁바라보	-14191
▁박물관	-14192
▁박원순	-14193
▁반란이	-14194
▁방안이	-14195
▁배웠다	-14196
▁벌이는	-14197
▁병으로	-14198
▁보이기	-14199
▁보이스	-14200
▁부정확	-14201
▁부진에	-14202
▁불구속	-14203
▁불안정	-14204
▁비교해	-14205
▁사단과	-14206
▁사람도	-14207
▁사이먼	-14208
▁사이언	-14209
▁사정을	-14210
▁사학자	-14211
▁산소를	-14212
▁생겨난	-14213
▁생겼다	-14214
▁생긴다	-14215
▁선출된	-14216
▁세대의	-14217
▁센트럴	-14218
▁소녀의	-14219
▁소재를	-14220
▁수단을	-14221
▁수도인	-14222
▁슈트라	-14223
▁스케줄	-14224
▁시상식	-14225
▁시켰다	-14226
▁시트콤	-14227
▁시호를	-14228
▁신앙을	-14229
▁신화는	-14230
▁싸이는	-14231
▁아내가	-14232
▁아리아	-14233
▁아이슬	-14234
▁아테네	-14235
▁암브로	-14236
▁앤드류	-14237
▁앨범인	-14238
▁야당의	-14239
▁언어의	-14240
▁없는데	-14241
▁없도록	-14242
▁에볼라	-14243
▁엘리트	-14244
▁역할은	-14245
▁연구한	-14246
▁연기는	-14247
▁영어로	-14248
▁영역은	-14249
▁영원한	-14250
▁올바른	-14251
▁외교적	-14252
▁용어를	-14253
▁운명을	-14254
▁운행을	-14255
▁원했다	-14256
▁위험이	-14257
▁유력한	-14258
▁유전적	-14259
▁유죄를	-14260
▁유지를	-14261
▁유효한	-14262
▁의심을	-14263
▁의회가	-14264
▁이유에	-14265
▁인간은	-14266
▁인생을	-14267
▁일대의	-14268
▁일제히	-14269
▁자격이	-14270
▁장군의	-14271
▁재정비	-14272
▁저지른	-14273
▁적으로	-14274
▁전통적	-14275
▁절대로	-14276
▁정이사	-14277
▁정체자	-14278
▁정치인	-14279
▁제한을	-14280
▁조용히	-14281
▁조직에	-14282
▁주위에	-14283
▁중심지	-14284
▁지나는	-14285
▁지나면	-14286
▁지위가	-14287
▁지점에	-14288
▁지키지	-14289
▁차이나	-14290
▁청해진	-14291
▁최소한	-14292
▁추기경	-14293
▁측면을	-14294
▁침략을	-14295
▁클레멘	-14296
▁태양은	-14297
▁판소리	-14298
▁패배로	-14299
▁폭행을	-14300
▁표면은	-14301
▁플라이	-14302
▁합의가	-14303
▁핵무기	-14304
▁향상을	-14305
▁헌법개	-14306
▁홍콩은	-14307
▁활발히	-14308
▁회사가	-14309
▁회원이	-14310
▁히데요	-14311
경기연맹	-14312
대상에서	-14313
롤라이나	-14314
만으로는	-14315
사회주의	-14316
시키려고	-14317
위원회에	-14318
프라이즈	-14319
학교에서	-14320
▁가능성에	-14321
▁가수로는	-14322
▁개체수가	-14323
▁거두었고	-14324
▁결혼식을	-14325
▁공격하여	-14326
▁관계없이	-14327
▁교회에서	-14328
▁국가들이	-14329
▁노르베르	-14330
▁뉴욕에서	-14331
▁단독으로	-14332
▁대학으로	-14333
▁등장인물	-14334
▁등장하여	-14335
▁롯데월드	-14336
▁리얼리티	-14337
▁마스터스	-14338
▁목소리가	-14339
▁못했다는	-14340
▁물러났다	-14341
▁발매하며	-14342
▁밝혀지지	-14343
▁방면으로	-14344
▁병원으로	-14345
▁보병사단	-14346
▁살아가는	-14347
▁상위권에	-14348
▁스탈린은	-14349
▁스트레스	-14350
▁시기에는	-14351
▁시리즈에	-14352
▁신노스케	-14353
▁신분으로	-14354
▁신화에서	-14355
▁아시카가	-14356
▁양유찬은	-14357
▁어렵다는	-14358
▁언급하며	-14359
▁없었다는	-14360
▁없으므로	-14361
▁에너지가	-14362
▁여성들이	-14363
▁옮겨졌다	-14364
▁위더스푼	-14365
▁위원장은	-14366
▁유라시아	-14367
▁인종차별	-14368
▁일본군의	-14369
▁일어났던	-14370
▁재단법인	-14371
▁전라남도	-14372
▁전성기를	-14373
▁제출했다	-14374
▁주둔하고	-14375
▁주민들이	-14376
▁주연으로	-14377
▁진행된다	-14378
▁차지하여	-14379
▁참석했다	-14380
▁참여하지	-14381
▁청나라에	-14382
▁카를로스	-14383
▁캐릭터의	-14384
▁토너먼트	-14385
▁투표에서	-14386
▁퍼포먼스	-14387
▁평가하는	-14388
▁평가한다	-14389
▁포함되지	-14390
▁프랑스로	-14391
▁플라스틱	-14392
▁하였다고	-14393
▁학자들이	-14394
▁할아버지	-14395
▁합류했다	-14396
▁활용하여	-14397
▁히어로즈	-14398
고등학교를	-14399
▁개최하였다	-14400
▁거절하였다	-14401
▁그리스도의	-14402
▁동일본대지	-14403
▁발전하였다	-14404
▁발표하였고	-14405
▁보고되었다	-14406
▁세바스토폴	-14407
▁스테고케라	-14408
▁아르메니아	-14409
▁악화되었다	-14410
▁원칙적으로	-14411
▁일어나면서	-14412
▁입장에서는	-14413
▁제기하였다	-14414
▁프랜시스는	-14415
▁프로그램의	-14416
▁피처링으로	-14417
▁활동전위가	-14418
▁활동전위는	-14419
▁기자회견에서	-14420
▁백상예술대상	-14421
▁스카이라인의	-14422
▁예정이었으나	-14423
▁자유민주주의	-14424
▁프리미어리그	-14425
▁á	-14426
▁è	-14427
▁四	-14428
▁正	-14429
▁皇	-14430
▁聖	-14431
▁눌	-14432
▁닐	-14433
▁뜯	-14434
▁몹	-14435
▁뭔	-14436
▁밭	-14437
▁솟	-14438
▁쉴	-14439
▁쏜	-14440
▁왓	-14441
▁킨	-14442
▁탤	-14443
가며	-14444
감한	-14445
강이	-14446
결에	-14447
경험	-14448
궁의	-14449
귀한	-14450
글레	-14451
노를	-14452
님을	-14453
다와	-14454
더가	-14455
됐던	-14456
드레	-14457
디가	-14458
라기	-14459
럽게	-14460
루크	-14461
름을	-14462
리니	-14463
링은	-14464
매김	-14465
목은	-14466
민을	-14467
받기	-14468
백제	-14469
벨트	-14470
본이	-14471
볼을	-14472
부르	-14473
불가	-14474
브레	-14475
비언	-14476
비츠	-14477
비홍	-14478
사기	-14479
사용	-14480
상도	-14481
서인	-14482
설은	-14483
섬유	-14484
스레	-14485
슨을	-14486
슬로	-14487
슬롯	-14488
신도	-14489
애틀	-14490
오스	-14491
온의	-14492
임과	-14493
중국	-14494
철이	-14495
체계	-14496
체적	-14497
초를	-14498
코스	-14499
턴을	-14500
티스	-14501
하우	-14502
합을	-14503
해운	-14504
혔고	-14505
호텔	-14506
▁가만	-14507
▁가면	-14508
▁감마	-14509
▁감히	-14510
▁강호	-14511
▁거울	-14512
▁겪는	-14513
▁계좌	-14514
▁골절	-14515
▁공손	-14516
▁공습	-14517
▁공용	-14518
▁관절	-14519
▁구동	-14520
▁구할	-14521
▁궤멸	-14522
▁기동	-14523
▁기뻐	-14524
▁기체	-14525
▁깜짝	-14526
▁나면	-14527
▁나쁘	-14528
▁난을	-14529
▁낮추	-14530
▁내기	-14531
▁내다	-14532
▁넘은	-14533
▁누나	-14534
▁늘려	-14535
▁단장	-14536
▁달이	-14537
▁당부	-14538
▁대종	-14539
▁덩어	-14540
▁됐고	-14541
▁두루	-14542
▁둘이	-14543
▁듯이	-14544
▁따서	-14545
▁때와	-14546
▁로타	-14547
▁리스	-14548
▁리어	-14549
▁마넬	-14550
▁막판	-14551
▁만민	-14552
▁맡는	-14553
▁맥도	-14554
▁맥스	-14555
▁맹순	-14556
▁메릴	-14557
▁멩겔	-14558
▁면이	-14559
▁명성	-14560
▁모음	-14561
▁모친	-14562
▁모피	-14563
▁모형	-14564
▁몸무	-14565
▁몸의	-14566
▁몹시	-14567
▁무패	-14568
▁문무	-14569
▁문예	-14570
▁미네	-14571
▁미주	-14572
▁민속	-14573
▁바와	-14574
▁반역	-14575
▁방치	-14576
▁백여	-14577
▁병역	-14578
▁보물	-14579
▁본진	-14580
▁분기	-14581
▁빨라	-14582
▁사료	-14583
▁사위	-14584
▁사카	-14585
▁산출	-14586
▁상식	-14587
▁새해	-14588
▁생생	-14589
▁선은	-14590
▁성씨	-14591
▁소금	-14592
▁손예	-14593
▁쇼군	-14594
▁수령	-14595
▁순회	-14596
▁슈뢰	-14597
▁스커	-14598
▁시는	-14599
▁시모	-14600
▁시찰	-14601
▁신촌	-14602
▁실격	-14603
▁싱어	-14604
▁씨를	-14605
▁아바	-14606
▁알코	-14607
▁앞당	-14608
▁에선	-14609
▁에픽	-14610
▁엔드	-14611
▁연령	-14612
▁연수	-14613
▁연인	-14614
▁영미	-14615
▁예가	-14616
▁오삼	-14617
▁올레	-14618
▁외면	-14619
▁요즘	-14620
▁요크	-14621
▁워터	-14622
▁위축	-14623
▁유감	-14624
▁유의	-14625
▁은둔	-14626
▁을사	-14627
▁음성	-14628
▁의석	-14629
▁인두	-14630
▁인연	-14631
▁일렉	-14632
▁임정	-14633
▁자손	-14634
▁잦은	-14635
▁적게	-14636
▁전횡	-14637
▁정변	-14638
▁정유	-14639
▁조리	-14640
▁조부	-14641
▁종묘	-14642
▁죽게	-14643
▁중략	-14644
▁증폭	-14645
▁지분	-14646
▁지킬	-14647
▁진전	-14648
▁질환	-14649
▁짧고	-14650
▁착한	-14651
▁천억	-14652
▁천재	-14653
▁청룡	-14654
▁총무	-14655
▁추미	-14656
▁출근	-14657
▁취해	-14658
▁친왕	-14659
▁친한	-14660
▁카지	-14661
▁컬러	-14662
▁컴퍼	-14663
▁탄원	-14664
▁탐색	-14665
▁태국	-14666
▁택시	-14667
▁퇴선	-14668
▁특사	-14669
▁파벌	-14670
▁포지	-14671
▁플랑	-14672
▁함을	-14673
▁해역	-14674
▁협동	-14675
▁호이	-14676
▁혼성	-14677
▁화랑	-14678
▁화약	-14679
결과를	-14680
관계의	-14681
급으로	-14682
났다고	-14683
내셔널	-14684
됐다고	-14685
된다면	-14686
레스로	-14687
바라키	-14688
바르드	-14689
밖에도	-14690
사들은	-14691
사추세	-14692
사회를	-14693
서비스	-14694
수에게	-14695
시간은	-14696
이였다	-14697
자리를	-14698
진에게	-14699
쳤으며	-14700
층에서	-14701
판에서	-14702
페르니	-14703
평가를	-14704
학으로	-14705
행으로	-14706
....	-14707
▁가로막	-14708
▁가지를	-14709
▁가지지	-14710
▁간단히	-14711
▁간신히	-14712
▁강력히	-14713
▁강의를	-14714
▁강화를	-14715
▁개체는	-14716
▁개체수	-14717
▁객관적	-14718
▁걸리는	-14719
▁경쟁이	-14720
▁계획과	-14721
▁고유한	-14722
▁곳곳에	-14723
▁관객을	-14724
▁교황이	-14725
▁구간을	-14726
▁구멍을	-14727
▁구미베	-14728
▁국민적	-14729
▁규모로	-14730
▁그들과	-14731
▁그룹은	-14732
▁기사가	-14733
▁기자의	-14734
▁기준이	-14735
▁기초한	-14736
▁끼치는	-14737
▁나고야	-14738
▁나오기	-14739
▁남부에	-14740
▁내려오	-14741
▁노래로	-14742
▁능력은	-14743
▁달러가	-14744
▁당했고	-14745
▁대기업	-14746
▁대립을	-14747
▁대본을	-14748
▁도발을	-14749
▁도시는	-14750
▁도입을	-14751
▁돌아다	-14752
▁동물원	-14753
▁되도록	-14754
▁되어서	-14755
▁딜런은	-14756
▁따른다	-14757
▁란슬롯	-14758
▁로마는	-14759
▁로즈가	-14760
▁리그를	-14761
▁마드라	-14762
▁만났고	-14763
▁만원에	-14764
▁매거진	-14765
▁메트로	-14766
▁모습은	-14767
▁못하면	-14768
▁무엇이	-14769
▁문서를	-14770
▁물었다	-14771
▁밀도가	-14772
▁바다를	-14773
▁바란다	-14774
▁바로잡	-14775
▁반란에	-14776
▁반정부	-14777
▁발언이	-14778
▁발전과	-14779
▁방침을	-14780
▁버전을	-14781
▁번갈아	-14782
▁법안을	-14783
▁베컴의	-14784
▁별개로	-14785
▁보도한	-14786
▁본래의	-14787
▁부모의	-14788
▁부유한	-14789
▁분노한	-14790
▁불규칙	-14791
▁불확실	-14792
▁브리튼	-14793
▁브이의	-14794
▁블루스	-14795
▁비율을	-14796
▁비판은	-14797
▁뿌리를	-14798
▁사랑에	-14799
▁사랑이	-14800
▁사실도	-14801
▁사용될	-14802
▁사형을	-14803
▁삼지연	-14804
▁상태의	-14805
▁샘프러	-14806
▁서로를	-14807
▁서신을	-14808
▁선거가	-14809
▁선수의	-14810
▁성립된	-14811
▁세력과	-14812
▁수도원	-14813
▁수성의	-14814
▁수용할	-14815
▁승리가	-14816
▁시도는	-14817
▁시애틀	-14818
▁시장은	-14819
▁시체를	-14820
▁아내인	-14821
▁아름답	-14822
▁아사히	-14823
▁아쉽게	-14824
▁알앤비	-14825
▁앨범이	-14826
▁어렵고	-14827
▁언론을	-14828
▁없다며	-14829
▁없으면	-14830
▁여기는	-14831
▁여의도	-14832
▁역까지	-14833
▁역사는	-14834
▁역할에	-14835
▁영남대	-14836
▁영어를	-14837
▁영향에	-14838
▁영화와	-14839
▁예정된	-14840
▁오른다	-14841
▁요시모	-14842
▁요청에	-14843
▁운영을	-14844
▁원으로	-14845
▁의사표	-14846
▁의상을	-14847
▁의원과	-14848
▁의회에	-14849
▁이뤘다	-14850
▁이은은	-14851
▁이해할	-14852
▁인근의	-14853
▁인물을	-14854
▁일대에	-14855
▁일컬어	-14856
▁자기의	-14857
▁자연의	-14858
▁작성된	-14859
▁장관을	-14860
▁장기간	-14861
▁장애인	-14862
▁장에서	-14863
▁장원삼	-14864
▁저격수	-14865
▁전선에	-14866
▁전하는	-14867
▁전하를	-14868
▁정의를	-14869
▁정하는	-14870
▁제니퍼	-14871
▁제작이	-14872
▁조약에	-14873
▁조정이	-14874
▁주인이	-14875
▁죽이려	-14876
▁줄여서	-14877
▁증거는	-14878
▁증거를	-14879
▁지시한	-14880
▁지켰다	-14881
▁징계를	-14882
▁차량이	-14883
▁채널은	-14884
▁체제의	-14885
▁출신이	-14886
▁충돌을	-14887
▁충성을	-14888
▁카이퍼	-14889
▁컨트롤	-14890
▁큰고래	-14891
▁타자를	-14892
▁테니스	-14893
▁투쟁을	-14894
▁판단을	-14895
▁팔꿈치	-14896
▁패스트	-14897
▁팬들과	-14898
▁팽나무	-14899
▁편으로	-14900
▁표현한	-14901
▁하나도	-14902
▁항성은	-14903
▁해달의	-14904
▁해프닝	-14905
▁협정을	-14906
▁혜택을	-14907
▁홍문관	-14908
▁활동도	-14909
▁황비홍	-14910
▁회의에	-14911
고속도로	-14912
과정에서	-14913
로부터의	-14914
른베르크	-14915
조사에서	-14916
▁가르치는	-14917
▁강조하는	-14918
▁거느리고	-14919
▁거부하는	-14920
▁계속되고	-14921
▁곳곳에서	-14922
▁공장에서	-14923
▁국가보안	-14924
▁국회의사	-14925
▁그랑프리	-14926
▁그렇지만	-14927
▁극적으로	-14928
▁김대중을	-14929
▁난민들은	-14930
▁대다수의	-14931
▁데시데리	-14932
▁도르곤은	-14933
▁돌아오지	-14934
▁동성애자	-14935
▁드라마에	-14936
▁라스베이	-14937
▁마음대로	-14938
▁못했으며	-14939
▁문화산업	-14940
▁발표한다	-14941
▁발표했고	-14942
▁밝히면서	-14943
▁방식이다	-14944
▁백성들을	-14945
▁버라이어	-14946
▁법학전문	-14947
▁변화하는	-14948
▁병사들을	-14949
▁보이기도	-14950
▁북한군은	-14951
▁북한군의	-14952
▁비디오는	-14953
▁비정규직	-14954
▁비즈니스	-14955
▁비판하고	-14956
▁사망하고	-14957
▁사용자가	-14958
▁사회적인	-14959
▁생겨났다	-14960
▁설치하는	-14961
▁성공으로	-14962
▁소개했다	-14963
▁순식간에	-14964
▁스스로의	-14965
▁스타일의	-14966
▁스테이지	-14967
▁시즌에서	-14968
▁아이디어	-14969
▁앨범으로	-14970
▁어머니인	-14971
▁에글린턴	-14972
▁연기하는	-14973
▁오키나와	-14974
▁올스타전	-14975
▁요구하며	-14976
▁운행하는	-14977
▁유권자의	-14978
▁유전자를	-14979
▁유지했다	-14980
▁융합과학	-14981
▁이동하는	-14982
▁이바라키	-14983
▁인간에게	-14984
▁인상적인	-14985
▁일어나기	-14986
▁임명하여	-14987
▁자리매김	-14988
▁재판에서	-14989
▁전까지는	-14990
▁전해졌다	-14991
▁지역이다	-14992
▁지원하고	-14993
▁철저하게	-14994
▁촉구했다	-14995
▁코페르니	-14996
▁태양계의	-14997
▁트위터를	-14998
▁트위터에	-14999
▁티베트에	-15000
▁티베트의	-15001
▁패트리어	-15002
▁평가하고	-15003
▁폐지하고	-15004
▁폭발적인	-15005
▁프랑스에	-15006
▁프로덕션	-15007
▁플로리다	-15008
▁피츠버그	-15009
▁하나였다	-15010
▁헌법재판	-15011
▁갑작스럽게	-15012
▁결승에서는	-15013
▁경기장에서	-15014
▁경제적으로	-15015
▁대체적으로	-15016
▁독자적으로	-15017
▁등장하였다	-15018
▁마이크로소	-15019
▁민주주의를	-15020
▁병사들에게	-15021
▁아프리카계	-15022
▁에피소드인	-15023
▁인정받았다	-15024
▁전문가들은	-15025
▁정상회담을	-15026
▁타이틀곡은	-15027
▁통합진보당	-15028
▁트레이드는	-15029
▁트레이드로	-15030
▁프로젝트를	-15031
▁프로젝트에	-15032
▁학생들에게	-15033
▁확정되었다	-15034
▁힙합플레이	-15035
▁라부아지에의	-15036
▁ā	-15037
▁一	-15038
▁世	-15039
▁義	-15040
▁軍	-15041
▁갯	-15042
▁뿜	-15043
▁샐	-15044
▁씻	-15045
▁젤	-15046
▁챌	-15047
▁칩	-15048
▁쿤	-15049
▁톈	-15050
▁푹	-15051
○○	-15052
관인	-15053
길에	-15054
남에	-15055
녀가	-15056
노에	-15057
노조	-15058
뉴스	-15059
담당	-15060
답을	-15061
닷컴	-15062
라코	-15063
리크	-15064
메스	-15065
모델	-15066
물인	-15067
바꿈	-15068
바시	-15069
반구	-15070
반응	-15071
방해	-15072
법상	-15073
벤션	-15074
복음	-15075
봉사	-15076
봉을	-15077
부지	-15078
블럼	-15079
빨리	-15080
사나	-15081
살로	-15082
새를	-15083
성경	-15084
스문	-15085
슬을	-15086
아와	-15087
어업	-15088
여객	-15089
옥은	-15090
왕조	-15091
용에	-15092
움과	-15093
원칙	-15094
웨어	-15095
의원	-15096
이멘	-15097
인숙	-15098
작이	-15099
재균	-15100
적과	-15101
정변	-15102
조참	-15103
조판	-15104
증에	-15105
지아	-15106
진한	-15107
진흥	-15108
책임	-15109
청의	-15110
켈라	-15111
탄이	-15112
토로	-15113
통상	-15114
티드	-15115
편을	-15116
평한	-15117
푸르	-15118
품의	-15119
하르	-15120
협약	-15121
훈이	-15122
히데	-15123
▁가령	-15124
▁가자	-15125
▁가희	-15126
▁개업	-15127
▁거둬	-15128
▁거성	-15129
▁걸리	-15130
▁게리	-15131
▁겪게	-15132
▁겪은	-15133
▁견인	-15134
▁경질	-15135
▁공존	-15136
▁과격	-15137
▁관례	-15138
▁관제	-15139
▁교내	-15140
▁국적	-15141
▁굴복	-15142
▁극대	-15143
▁근위	-15144
▁금이	-15145
▁기지	-15146
▁김구	-15147
▁김윤	-15148
▁꾸며	-15149
▁나돌	-15150
▁난입	-15151
▁넓게	-15152
▁다중	-15153
▁당연	-15154
▁대마	-15155
▁대일	-15156
▁도박	-15157
▁도사	-15158
▁도약	-15159
▁도핑	-15160
▁들의	-15161
▁따랐	-15162
▁땅이	-15163
▁라운	-15164
▁라파	-15165
▁랜드	-15166
▁레즈	-15167
▁로고	-15168
▁루시	-15169
▁리지	-15170
▁만인	-15171
▁말기	-15172
▁맞춤	-15173
▁맡겨	-15174
▁메갈	-15175
▁명씩	-15176
▁모멘	-15177
▁몰수	-15178
▁무언	-15179
▁무인	-15180
▁문벌	-15181
▁물대	-15182
▁뮌헨	-15183
▁미성	-15184
▁믿지	-15185
▁박규	-15186
▁반사	-15187
▁발급	-15188
▁발할	-15189
▁방남	-15190
▁배운	-15191
▁백남	-15192
▁백화	-15193
▁번씩	-15194
▁법안	-15195
▁별일	-15196
▁병에	-15197
▁보라	-15198
▁봄에	-15199
▁부설	-15200
▁분당	-15201
▁불거	-15202
▁불의	-15203
▁뷔르	-15204
▁빛이	-15205
▁사생	-15206
▁살기	-15207
▁살라	-15208
▁상류	-15209
▁상지	-15210
▁생략	-15211
▁설을	-15212
▁성서	-15213
▁성화	-15214
▁세자	-15215
▁소뇌	-15216
▁소치	-15217
▁솔직	-15218
▁송금	-15219
▁수신	-15220
▁수장	-15221
▁숙명	-15222
▁쉽고	-15223
▁슬럼	-15224
▁식당	-15225
▁신료	-15226
▁신을	-15227
▁실수	-15228
▁심슨	-15229
▁싸울	-15230
▁쌍방	-15231
▁쓰촨	-15232
▁아프	-15233
▁악성	-15234
▁알마	-15235
▁알맞	-15236
▁애도	-15237
▁애리	-15238
▁약칭	-15239
▁양을	-15240
▁어쨌	-15241
▁어필	-15242
▁어휘	-15243
▁에릭	-15244
▁역과	-15245
▁역은	-15246
▁예하	-15247
▁오노	-15248
▁오렌	-15249
▁오케	-15250
▁옵션	-15251
▁요원	-15252
▁우세	-15253
▁운송	-15254
▁워크	-15255
▁원죄	-15256
▁위배	-15257
▁위법	-15258
▁위생	-15259
▁위함	-15260
▁유닛	-15261
▁의정	-15262
▁이관	-15263
▁이반	-15264
▁이브	-15265
▁이산	-15266
▁인접	-15267
▁일차	-15268
▁입자	-15269
▁입찰	-15270
▁있으	-15271
▁자민	-15272
▁전지	-15273
▁절단	-15274
▁정옥	-15275
▁제창	-15276
▁조의	-15277
▁조형	-15278
▁족보	-15279
▁종족	-15280
▁좌완	-15281
▁주며	-15282
▁주시	-15283
▁주체	-15284
▁중기	-15285
▁중동	-15286
▁즐겨	-15287
▁지극	-15288
▁지냈	-15289
▁지대	-15290
▁진흥	-15291
▁질주	-15292
▁차종	-15293
▁차출	-15294
▁창을	-15295
▁채굴	-15296
▁척을	-15297
▁초동	-15298
▁초빙	-15299
▁최규	-15300
▁추축	-15301
▁취향	-15302
▁치르	-15303
▁침묵	-15304
▁캐시	-15305
▁크롬	-15306
▁키케	-15307
▁타락	-15308
▁태워	-15309
▁투과	-15310
▁파면	-15311
▁파운	-15312
▁팔레	-15313
▁패를	-15314
▁패전	-15315
▁패퇴	-15316
▁페어	-15317
▁편안	-15318
▁펼치	-15319
▁폐막	-15320
▁포가	-15321
▁폭스	-15322
▁품은	-15323
▁피노	-15324
▁피지	-15325
▁하라	-15326
▁하르	-15327
▁합당	-15328
▁합창	-15329
▁항구	-15330
▁해발	-15331
▁해킹	-15332
▁해트	-15333
▁헤드	-15334
▁헬레	-15335
▁헬렌	-15336
▁형이	-15337
▁회피	-15338
▁후루	-15339
▁휴지	-15340
▁흑백	-15341
경제적	-15342
경찰서	-15343
국의용	-15344
기관인	-15345
대학이	-15346
들간의	-15347
들까지	-15348
디스크	-15349
라에게	-15350
렸다는	-15351
로동당	-15352
버리는	-15353
법위반	-15354
본부는	-15355
빌라이	-15356
사리요	-15357
사이클	-15358
산에서	-15359
세력이	-15360
스키는	-15361
스터를	-15362
습니까	-15363
시에서	-15364
어에서	-15365
영화상	-15366
왔으나	-15367
우라늄	-15368
즈베리	-15369
쳤는데	-15370
포이멘	-15371
화되는	-15372
화했다	-15373
▁가격이	-15374
▁가설은	-15375
▁가지가	-15376
▁각자의	-15377
▁강렬한	-15378
▁갖는다	-15379
▁개인이	-15380
▁개체군	-15381
▁거머쥐	-15382
▁건축물	-15383
▁견해가	-15384
▁결정이	-15385
▁결정적	-15386
▁결혼한	-15387
▁경제에	-15388
▁경제학	-15389
▁고개를	-15390
▁고유의	-15391
▁곡들을	-15392
▁곧이어	-15393
▁공격해	-15394
▁공사관	-15395
▁교회가	-15396
▁구성을	-15397
▁구하는	-15398
▁구호를	-15399
▁국민당	-15400
▁국왕은	-15401
▁궤도가	-15402
▁그려져	-15403
▁그려진	-15404
▁그룹이	-15405
▁긍정적	-15406
▁김고은	-15407
▁꼽힌다	-15408
▁끝나면	-15409
▁나왔고	-15410
▁나이를	-15411
▁나치의	-15412
▁남성의	-15413
▁논란은	-15414
▁높았다	-15415
▁누렸다	-15416
▁누켈라	-15417
▁뉴욕에	-15418
▁늑대와	-15419
▁다시는	-15420
▁다이묘	-15421
▁단어가	-15422
▁당시는	-15423
▁당신의	-15424
▁대승을	-15425
▁대우를	-15426
▁대통합	-15427
▁대회인	-15428
▁도시로	-15429
▁도와주	-15430
▁도입한	-15431
▁동남권	-15432
▁동맹군	-15433
▁되므로	-15434
▁레닌은	-15435
▁마돈나	-15436
▁마르셀	-15437
▁마음의	-15438
▁마이애	-15439
▁만들게	-15440
▁만명을	-15441
▁말씀을	-15442
▁말에는	-15443
▁맥아더	-15444
▁머리에	-15445
▁머물러	-15446
▁명백히	-15447
▁모델을	-15448
▁모델이	-15449
▁모리스	-15450
▁목적이	-15451
▁무기한	-15452
▁문화에	-15453
▁바라는	-15454
▁박도영	-15455
▁밖에서	-15456
▁배치된	-15457
▁버려진	-15458
▁버린다	-15459
▁번째는	-15460
▁병력은	-15461
▁보이콧	-15462
▁부지를	-15463
▁북쪽에	-15464
▁분명한	-15465
▁분석이	-15466
▁분쟁이	-15467
▁불리던	-15468
▁불만이	-15469
▁브이는	-15470
▁비롯된	-15471
▁비주얼	-15472
▁비하면	-15473
▁빌리의	-15474
▁빠지게	-15475
▁사냥을	-15476
▁사단의	-15477
▁사항을	-15478
▁삼번의	-15479
▁새겨져	-15480
▁생활에	-15481
▁선택한	-15482
▁성균관	-15483
▁세계적	-15484
▁세력에	-15485
▁셰퍼드	-15486
▁소감을	-15487
▁소녀를	-15488
▁소크라	-15489
▁수도를	-15490
▁수요가	-15491
▁수표를	-15492
▁순으로	-15493
▁시장을	-15494
▁신들이	-15495
▁신문의	-15496
▁신인상	-15497
▁신주쿠	-15498
▁신화에	-15499
▁실었다	-15500
▁싸우고	-15501
▁쓰러진	-15502
▁아나키	-15503
▁아니냐	-15504
▁얻었고	-15505
▁에이전	-15506
▁엔진이	-15507
▁여러번	-15508
▁여론을	-15509
▁여성과	-15510
▁였으며	-15511
▁영어의	-15512
▁오스틴	-15513
▁왕실의	-15514
▁왕위에	-15515
▁요인이	-15516
▁우승에	-15517
▁운영에	-15518
▁원래는	-15519
▁원장은	-15520
▁원하지	-15521
▁월에서	-15522
▁유럽과	-15523
▁유병언	-15524
▁육영재	-15525
▁으로서	-15526
▁의무가	-15527
▁의미는	-15528
▁의혹에	-15529
▁이겼다	-15530
▁이내에	-15531
▁이룩한	-15532
▁이성질	-15533
▁이후인	-15534
▁일부러	-15535
▁일부의	-15536
▁일에서	-15537
▁일하고	-15538
▁임의로	-15539
▁입장에	-15540
▁자체에	-15541
▁작전은	-15542
▁잔인한	-15543
▁장르를	-15544
▁장점이	-15545
▁장치를	-15546
▁전통에	-15547
▁전투기	-15548
▁절정에	-15549
▁점성술	-15550
▁접근을	-15551
▁정말로	-15552
▁정신병	-15553
▁정의당	-15554
▁제공한	-15555
▁제국과	-15556
▁제도와	-15557
▁제도의	-15558
▁제주마	-15559
▁조사가	-15560
▁존재는	-15561
▁종류가	-15562
▁주장과	-15563
▁줄어든	-15564
▁줄이고	-15565
▁중에도	-15566
▁증거로	-15567
▁증상을	-15568
▁지정된	-15569
▁진단을	-15570
▁질병에	-15571
▁참여를	-15572
▁창원시	-15573
▁처벌을	-15574
▁철학을	-15575
▁청교도	-15576
▁체제가	-15577
▁체제에	-15578
▁추미애	-15579
▁출범한	-15580
▁출연을	-15581
▁케이티	-15582
▁켈피는	-15583
▁쿠퍼는	-15584
▁크기를	-15585
▁탈출을	-15586
▁태양이	-15587
▁토이트	-15588
▁통일된	-15589
▁통합을	-15590
▁트로피	-15591
▁특전사	-15592
▁특징은	-15593
▁판결이	-15594
▁퍼시픽	-15595
▁평화의	-15596
▁표현의	-15597
▁프로세	-15598
▁하늘의	-15599
▁하지는	-15600
▁학교가	-15601
▁학문을	-15602
▁학생회	-15603
▁학업을	-15604
▁한겨레	-15605
▁해결을	-15606
▁해석이	-15607
▁허가를	-15608
▁현장을	-15609
▁혹평을	-15610
▁혼란이	-15611
▁혼자서	-15612
▁홍콩의	-15613
▁화해를	-15614
▁환경이	-15615
▁회장은	-15616
▁흔적이	-15617
▁희망을	-15618
거리에서	-15619
받았으나	-15620
사추세츠	-15621
었습니다	-15622
인으로서	-15623
지방법원	-15624
지역에서	-15625
▁가족들을	-15626
▁강조하고	-15627
▁거절했다	-15628
▁거주하고	-15629
▁게오르크	-15630
▁경상북도	-15631
▁계속했다	-15632
▁고등학생	-15633
▁고향으로	-15634
▁공격적인	-15635
▁공연했다	-15636
▁구성된다	-15637
▁년까지는	-15638
▁년까지의	-15639
▁노동조합	-15640
▁대변하는	-15641
▁대선후보	-15642
▁대중에게	-15643
▁대중음악	-15644
▁대항하는	-15645
▁데이터를	-15646
▁도요토미	-15647
▁도입하여	-15648
▁도착하여	-15649
▁도카이도	-15650
▁되어서야	-15651
▁라그나로	-15652
▁라틴어로	-15653
▁막론하고	-15654
▁만들어낸	-15655
▁모두에서	-15656
▁문화재를	-15657
▁물론이고	-15658
▁미니앨범	-15659
▁민정수석	-15660
▁발견하고	-15661
▁발생하고	-15662
▁방문하는	-15663
▁방어선을	-15664
▁병사들은	-15665
▁복귀했다	-15666
▁부분으로	-15667
▁불과했다	-15668
▁브라질의	-15669
▁비교하면	-15670
▁사망하자	-15671
▁산업혁명	-15672
▁생각하여	-15673
▁생각하지	-15674
▁서바이벌	-15675
▁서식하고	-15676
▁서재필은	-15677
▁선보이며	-15678
▁설치했다	-15679
▁성공하여	-15680
▁세기에는	-15681
▁시작되기	-15682
▁신흥학교	-15683
▁아버지와	-15684
▁안토니오	-15685
▁어머니를	-15686
▁에나쓰는	-15687
▁에르제는	-15688
▁여자친구	-15689
▁연합군은	-15690
▁올림픽과	-15691
▁옹정제가	-15692
▁옹호하는	-15693
▁와카야마	-15694
▁요구하고	-15695
▁요청으로	-15696
▁이승만은	-15697
▁이어졌고	-15698
▁이어진다	-15699
▁이해하고	-15700
▁인사들이	-15701
▁일부터는	-15702
▁일어났고	-15703
▁일으키고	-15704
▁일으킨다	-15705
▁있음에도	-15706
▁장면에서	-15707
▁전문적인	-15708
▁전선에서	-15709
▁절대적인	-15710
▁조직하여	-15711
▁중앙일보	-15712
▁증언했다	-15713
▁추신수는	-15714
▁추측하고	-15715
▁출마하여	-15716
▁출발하여	-15717
▁케플러가	-15718
▁쿠데타를	-15719
▁파괴하는	-15720
▁편성으로	-15721
▁프롤레타	-15722
▁하느님의	-15723
▁한국철도	-15724
▁한반도를	-15725
▁할리우드	-15726
▁홍가권을	-15727
▁후반부터	-15728
▁강조하였다	-15729
▁국가대표로	-15730
▁근본적으로	-15731
▁노동자들의	-15732
▁다이아몬드	-15733
▁대대적으로	-15734
▁대중들에게	-15735
▁대한민국과	-15736
▁데이비스는	-15737
▁독립운동가	-15738
▁들어서면서	-15739
▁만들었다고	-15740
▁맥그리거는	-15741
▁반박하였다	-15742
▁받아들이지	-15743
▁사회주의적	-15744
▁수여하였다	-15745
▁아이디어를	-15746
▁아이스하키	-15747
▁에피소드에	-15748
▁이탈리아를	-15749
▁인터내셔널	-15750
▁제시하였다	-15751
▁주장하였고	-15752
▁지시하였다	-15753
▁지적하였다	-15754
▁집중적으로	-15755
▁차트에서는	-15756
▁참석하였다	-15757
▁출판하였다	-15758
▁크로아티아	-15759
▁필로포이멘	-15760
▁필요하다고	-15761
▁필요하다는	-15762
▁효율적으로	-15763
▁베이비복스는	-15764
▁스카이라인은	-15765
▁예정이었지만	-15766
▁코벨레스키는	-15767
▁프리스케이팅	-15768
▁아우구스투스의	-15769
▁스테고사우루스의	-15770
▁☉	-15771
▁民	-15772
▁永	-15773
▁無	-15774
▁英	-15775
▁長	-15776
▁껍	-15777
▁꼴	-15778
▁끓	-15779
▁낱	-15780
▁냥	-15781
▁빵	-15782
▁샷	-15783
▁으	-15784
▁째	-15785
▁킥	-15786
▁턴	-15787
▁톨	-15788
ロリ	-15789
가루	-15790
각형	-15791
거가	-15792
거의	-15793
결핵	-15794
경주	-15795
고와	-15796
과로	-15797
교류	-15798
궁에	-15799
그로	-15800
극장	-15801
기만	-15802
기압	-15803
너는	-15804
네마	-15805
노스	-15806
노총	-15807
니시	-15808
님은	-15809
다나	-15810
다를	-15811
다며	-15812
등과	-15813
렉스	-15814
려서	-15815
르다	-15816
르도	-15817
모임	-15818
미스	-15819
바가	-15820
바의	-15821
방법	-15822
백이	-15823
분석	-15824
브와	-15825
살이	-15826
상인	-15827
송월	-15828
스페	-15829
슬리	-15830
실버	-15831
아래	-15832
아에	-15833
암의	-15834
엄을	-15835
연금	-15836
열과	-15837
욕탕	-15838
유리	-15839
으러	-15840
이은	-15841
장비	-15842
정신	-15843
제프	-15844
종과	-15845
즈키	-15846
지법	-15847
지진	-15848
짓는	-15849
차게	-15850
책이	-15851
처가	-15852
처는	-15853
처에	-15854
쳤던	-15855
츠는	-15856
콘서	-15857
킨스	-15858
타가	-15859
탄에	-15860
트넘	-15861
튼은	-15862
티를	-15863
퍼를	-15864
포는	-15865
포트	-15866
하듯	-15867
하루	-15868
학위	-15869
한이	-15870
효율	-15871
▁”.	-15872
▁가던	-15873
▁가산	-15874
▁각인	-15875
▁간미	-15876
▁감축	-15877
▁값을	-15878
▁강과	-15879
▁강모	-15880
▁강타	-15881
▁개개	-15882
▁개에	-15883
▁검출	-15884
▁견디	-15885
▁경희	-15886
▁고딕	-15887
▁고성	-15888
▁고집	-15889
▁곡에	-15890
▁공방	-15891
▁공소	-15892
▁과제	-15893
▁관철	-15894
▁구릉	-15895
▁궁예	-15896
▁금성	-15897
▁기가	-15898
▁기는	-15899
▁기숙	-15900
▁꺼내	-15901
▁꿈꾸	-15902
▁난다	-15903
▁내릴	-15904
▁넓혀	-15905
▁노리	-15906
▁노조	-15907
▁논고	-15908
▁놀이	-15909
▁농노	-15910
▁니체	-15911
▁단결	-15912
▁단축	-15913
▁대는	-15914
▁대도	-15915
▁대부	-15916
▁대입	-15917
▁도이	-15918
▁도피	-15919
▁돈은	-15920
▁돌고	-15921
▁동명	-15922
▁되게	-15923
▁두지	-15924
▁들려	-15925
▁떼어	-15926
▁로비	-15927
▁리즈	-15928
▁마술	-15929
▁막대	-15930
▁매개	-15931
▁맺는	-15932
▁멋진	-15933
▁메모	-15934
▁모로	-15935
▁무마	-15936
▁무술	-15937
▁묻자	-15938
▁미노	-15939
▁미르	-15940
▁바꿨	-15941
▁바보	-15942
▁바쁜	-15943
▁바실	-15944
▁박해	-15945
▁방정	-15946
▁배반	-15947
▁배워	-15948
▁배척	-15949
▁버블	-15950
▁베테	-15951
▁변모	-15952
▁별은	-15953
▁보류	-15954
▁볼리	-15955
▁부당	-15956
▁북남	-15957
▁분지	-15958
▁브뤼	-15959
▁뻗어	-15960
▁사설	-15961
▁사탕	-15962
▁샘플	-15963
▁생계	-15964
▁서브	-15965
▁서원	-15966
▁선사	-15967
▁성당	-15968
▁세균	-15969
▁세탄	-15970
▁섹스	-15971
▁소매	-15972
▁소홀	-15973
▁순무	-15974
▁숨을	-15975
▁시노	-15976
▁시립	-15977
▁시발	-15978
▁시속	-15979
▁시어	-15980
▁시킨	-15981
▁신드	-15982
▁신속	-15983
▁쏘아	-15984
▁아닥	-15985
▁안도	-15986
▁안을	-15987
▁안재	-15988
▁알라	-15989
▁알현	-15990
▁앞세	-15991
▁앨리	-15992
▁야외	-15993
▁얇은	-15994
▁에른	-15995
▁에우	-15996
▁엔딩	-15997
▁여타	-15998
▁영조	-15999
▁오타	-16000
▁오펜	-16001
▁올드	-16002
▁왕비	-16003
▁왕자	-16004
▁외척	-16005
▁용기	-16006
▁원이	-16007
▁위헌	-16008
▁유희	-16009
▁윤석	-16010
▁이장	-16011
▁이진	-16012
▁이한	-16013
▁인데	-16014
▁인력	-16015
▁일엔	-16016
▁일컫	-16017
▁입어	-16018
▁입체	-16019
▁자아	-16020
▁자케	-16021
▁장로	-16022
▁장에	-16023
▁장점	-16024
▁전멸	-16025
▁전방	-16026
▁절약	-16027
▁정황	-16028
▁제수	-16029
▁제휴	-16030
▁조슈	-16031
▁주사	-16032
▁주입	-16033
▁줄을	-16034
▁줄이	-16035
▁중수	-16036
▁지옥	-16037
▁지을	-16038
▁지의	-16039
▁지주	-16040
▁짐승	-16041
▁집과	-16042
▁짧게	-16043
▁쪽의	-16044
▁쪽이	-16045
▁찾고	-16046
▁챌린	-16047
▁처녀	-16048
▁철강	-16049
▁청탁	-16050
▁최태	-16051
▁출혈	-16052
▁취한	-16053
▁취할	-16054
▁치는	-16055
▁치렀	-16056
▁침체	-16057
▁칫소	-16058
▁카터	-16059
▁캐럴	-16060
▁캐치	-16061
▁캔디	-16062
▁캔자	-16063
▁커져	-16064
▁콘코	-16065
▁큐브	-16066
▁키가	-16067
▁타도	-16068
▁탄도	-16069
▁트렌	-16070
▁특혜	-16071
▁틀어	-16072
▁팀인	-16073
▁파산	-16074
▁판문	-16075
▁페레	-16076
▁포섭	-16077
▁포츠	-16078
▁피질	-16079
▁필연	-16080
▁하의	-16081
▁한가	-16082
▁한참	-16083
▁항일	-16084
▁해경	-16085
▁해마	-16086
▁해변	-16087
▁호전	-16088
▁확률	-16089
▁황폐	-16090
▁훈장	-16091
▁흔적	-16092
▁흥국	-16093
구조를	-16094
나가는	-16095
는지를	-16096
되다가	-16097
들끼리	-16098
레스크	-16099
메이트	-16100
베니아	-16101
사에게	-16102
속에서	-16103
스키의	-16104
왔다는	-16105
운동이	-16106
있으며	-16107
정책의	-16108
제도의	-16109
조치를	-16110
청에서	-16111
카드를	-16112
평했다	-16113
프에서	-16114
하느냐	-16115
할만한	-16116
해졌고	-16117
했어요	-16118
회의가	-16119
▁가사가	-16120
▁가상의	-16121
▁가속화	-16122
▁갈라져	-16123
▁같은해	-16124
▁개선을	-16125
▁거래가	-16126
▁거처를	-16127
▁건물은	-16128
▁것과는	-16129
▁결승전	-16130
▁결정은	-16131
▁경기로	-16132
▁경찰서	-16133
▁고려해	-16134
▁고종은	-16135
▁곳이다	-16136
▁공약을	-16137
▁관측을	-16138
▁관해서	-16139
▁관현악	-16140
▁교도소	-16141
▁교류를	-16142
▁교수로	-16143
▁구단이	-16144
▁규모를	-16145
▁규제를	-16146
▁그밖에	-16147
▁기록과	-16148
▁기록된	-16149
▁기여한	-16150
▁기준에	-16151
▁기타를	-16152
▁김규식	-16153
▁김기덕	-16154
▁김종필	-16155
▁나이는	-16156
▁남쪽의	-16157
▁년에도	-16158
▁논문은	-16159
▁달랐다	-16160
▁달성한	-16161
▁당국의	-16162
▁당명을	-16163
▁당신은	-16164
▁대국민	-16165
▁대도시	-16166
▁대표곡	-16167
▁데다가	-16168
▁도루를	-16169
▁돈으로	-16170
▁동교동	-16171
▁동메달	-16172
▁동물의	-16173
▁되지만	-16174
▁뒤늦게	-16175
▁드러난	-16176
▁들었고	-16177
▁따르지	-16178
▁라면서	-16179
▁루수로	-16180
▁마르틴	-16181
▁만달러	-16182
▁만주국	-16183
▁말라고	-16184
▁말하지	-16185
▁맡기도	-16186
▁못하자	-16187
▁못했기	-16188
▁무기징	-16189
▁무엇을	-16190
▁묻는다	-16191
▁미군은	-16192
▁미래에	-16193
▁믿는다	-16194
▁바티칸	-16195
▁받았을	-16196
▁발행한	-16197
▁방문을	-16198
▁방송이	-16199
▁벌였고	-16200
▁범위가	-16201
▁변경을	-16202
▁보면서	-16203
▁보상을	-16204
▁봉기가	-16205
▁부담이	-16206
▁부탁을	-16207
▁부활절	-16208
▁북부의	-16209
▁분까지	-16210
▁분량의	-16211
▁붙였다	-16212
▁비중을	-16213
▁사고의	-16214
▁사단을	-16215
▁사드가	-16216
▁사망자	-16217
▁사상은	-16218
▁사업의	-16219
▁사업이	-16220
▁사태에	-16221
▁상대를	-16222
▁상징적	-16223
▁생계를	-16224
▁생존자	-16225
▁섹시한	-16226
▁소식에	-16227
▁손바이	-16228
▁수시로	-16229
▁순치제	-16230
▁스테이	-16231
▁스파르	-16232
▁시부터	-16233
▁시절을	-16234
▁시행된	-16235
▁시험을	-16236
▁신한국	-16237
▁신화가	-16238
▁신화적	-16239
▁실력이	-16240
▁심시티	-16241
▁싱어송	-16242
▁싸움이	-16243
▁아키타	-16244
▁안에는	-16245
▁알코올	-16246
▁애비뉴	-16247
▁야마토	-16248
▁약속한	-16249
▁억원의	-16250
▁얼굴이	-16251
▁연결된	-16252
▁연출을	-16253
▁오바마	-16254
▁왔는데	-16255
▁외교부	-16256
▁요구에	-16257
▁용기를	-16258
▁우주선	-16259
▁원정을	-16260
▁윤잉은	-16261
▁의견에	-16262
▁의사가	-16263
▁의원을	-16264
▁이동할	-16265
▁이디야	-16266
▁이때는	-16267
▁이르고	-16268
▁이사회	-16269
▁인접한	-16270
▁일만에	-16271
▁일했다	-16272
▁입후보	-16273
▁있거나	-16274
▁있기도	-16275
▁작가는	-16276
▁장관이	-16277
▁재빨리	-16278
▁절에서	-16279
▁정옥숙	-16280
▁정치가	-16281
▁제도는	-16282
▁제작자	-16283
▁조화를	-16284
▁주제는	-16285
▁줄이는	-16286
▁중앙에	-16287
▁증가한	-16288
▁지구로	-16289
▁지구와	-16290
▁지난해	-16291
▁지느러	-16292
▁지어진	-16293
▁지역도	-16294
▁지원과	-16295
▁지진의	-16296
▁집어넣	-16297
▁참여해	-16298
▁철도를	-16299
▁철수를	-16300
▁체결된	-16301
▁초에는	-16302
▁최상위	-16303
▁최연소	-16304
▁취임한	-16305
▁치료에	-16306
▁카디널	-16307
▁컨디션	-16308
▁쿠바의	-16309
▁클라우	-16310
▁클럽은	-16311
▁타디스	-16312
▁타이탄	-16313
▁탈삼진	-16314
▁태양과	-16315
▁태풍의	-16316
▁트로이	-16317
▁판단한	-16318
▁평화와	-16319
▁폴링의	-16320
▁표현할	-16321
▁프레이	-16322
▁하나에	-16323
▁학생을	-16324
▁함대가	-16325
▁항생제	-16326
▁항소를	-16327
▁해왔던	-16328
▁행성을	-16329
▁향했다	-16330
▁현대에	-16331
▁현송월	-16332
▁협상에	-16333
▁형태와	-16334
▁확대를	-16335
▁확보한	-16336
▁확인된	-16337
▁황재균	-16338
▁흐름을	-16339
▁흥행에	-16340
▁히네노	-16341
노동조합	-16342
니케이션	-16343
비네이션	-16344
슈타인이	-16345
적이었던	-16346
하기까지	-16347
하자마자	-16348
▁가능하며	-16349
▁가마쿠라	-16350
▁가상현실	-16351
▁감독직을	-16352
▁강전에서	-16353
▁강희제를	-16354
▁경선에서	-16355
▁경제적인	-16356
▁계속하여	-16357
▁고전적인	-16358
▁공과대학	-16359
▁과학기술	-16360
▁괴벨스는	-16361
▁국가들은	-16362
▁국방부는	-16363
▁그때까지	-16364
▁극찬했다	-16365
▁급진적인	-16366
▁기념하여	-16367
▁기다리는	-16368
▁기록한다	-16369
▁김대중이	-16370
▁나타나게	-16371
▁나타나기	-16372
▁논란으로	-16373
▁늘어나고	-16374
▁대중들의	-16375
▁데브스는	-16376
▁도입하는	-16377
▁독립적인	-16378
▁등지에서	-16379
▁루트비히	-16380
▁말하기도	-16381
▁메릴랜드	-16382
▁명분으로	-16383
▁모두에게	-16384
▁못하였고	-16385
▁묘사했다	-16386
▁무한도전	-16387
▁문재인의	-16388
▁미국과의	-16389
▁믹스테잎	-16390
▁민주당의	-16391
▁바꾸었다	-16392
▁반대에도	-16393
▁발견되어	-16394
▁발표하여	-16395
▁밝혔으며	-16396
▁보수적인	-16397
▁보여줬다	-16398
▁보편적인	-16399
▁불과하다	-16400
▁비틀즈는	-16401
▁뿐이라고	-16402
▁사람들로	-16403
▁사상자가	-16404
▁사용하며	-16405
▁상징적인	-16406
▁생각하며	-16407
▁선택했다	-16408
▁설립하고	-16409
▁성명서를	-16410
▁세르비아	-16411
▁세인트루	-16412
▁소련군은	-16413
▁스웨덴의	-16414
▁스위스의	-16415
▁스탈린의	-16416
▁스튜어트	-16417
▁신기록을	-16418
▁싫어하는	-16419
▁십자군은	-16420
▁아이들의	-16421
▁알루미늄	-16422
▁어거스터	-16423
▁어디까지	-16424
▁에른스트	-16425
▁에스파냐	-16426
▁역사적인	-16427
▁역임했다	-16428
▁연기하며	-16429
▁영국으로	-16430
▁오프라인	-16431
▁우려하여	-16432
▁원로원은	-16433
▁유엔군의	-16434
▁육영재단	-16435
▁의화단의	-16436
▁이데올로	-16437
▁이미지는	-16438
▁이야기에	-16439
▁이어나가	-16440
▁이어지고	-16441
▁이해하는	-16442
▁인정되지	-16443
▁일베저장	-16444
▁일본군은	-16445
▁일으켰고	-16446
▁일자리를	-16447
▁임명되어	-16448
▁입장이다	-16449
▁있었음을	-16450
▁자신들을	-16451
▁재계약을	-16452
▁전라북도	-16453
▁제작했다	-16454
▁주축으로	-16455
▁준우승에	-16456
▁중소기업	-16457
▁중시하는	-16458
▁증가한다	-16459
▁지기스문	-16460
▁지적하며	-16461
▁지정되어	-16462
▁참가하는	-16463
▁천문단위	-16464
▁출전하지	-16465
▁파격적인	-16466
▁판단하여	-16467
▁페더러는	-16468
▁평하였다	-16469
▁프로리그	-16470
▁프로모션	-16471
▁프롤로는	-16472
▁피해자의	-16473
▁한성부민	-16474
▁항공우주	-16475
▁현상으로	-16476
▁호소했다	-16477
▁홍가권의	-16478
▁확인하고	-16479
▁황국의용	-16480
▁황제에게	-16481
▁획기적인	-16482
▁가능하다는	-16483
▁네덜란드는	-16484
▁뉘른베르크	-16485
▁담당하였다	-16486
▁더불어민주	-16487
▁라이블리는	-16488
▁러시아군은	-16489
▁모터사이클	-16490
▁발탁되었다	-16491
▁백성들에게	-16492
▁버라이어티	-16493
▁베네치아의	-16494
▁베를린에서	-16495
▁변경하였다	-16496
▁북아프리카	-16497
▁브로드웨이	-16498
▁사운드트랙	-16499
▁선정되었고	-16500
▁승리하면서	-16501
▁시작했지만	-16502
▁아이슬란드	-16503
▁에트루리아	-16504
▁에피소드는	-16505
▁역사적으로	-16506
▁영화제에서	-16507
▁이어나갔다	-16508
▁일어났으며	-16509
▁있었으므로	-16510
▁중국에서는	-16511
▁지명되었다	-16512
▁참여하였고	-16513
▁청와대에서	-16514
▁포르투갈의	-16515
▁홈페이지를	-16516
▁활약하였다	-16517
빙상경기연맹	-16518
▁발표하였으며	-16519
▁스맥다운에서	-16520
▁아리스토텔레	-16521
▁자유민주연합	-16522
▁프롤레타리아	-16523
▁힙합플레이야	-16524
≫、	-16525
▁í	-16526
▁古	-16527
▁基	-16528
▁武	-16529
▁自	-16530
▁낯	-16531
▁넬	-16532
▁럭	-16533
▁롬	-16534
▁릿	-16535
▁맑	-16536
▁뱃	-16537
▁붓	-16538
▁뷰	-16539
▁섰	-16540
▁숱	-16541
▁줘	-16542
가능	-16543
가리	-16544
결한	-16545
경쟁	-16546
골드	-16547
골어	-16548
공간	-16549
공무	-16550
그가	-16551
근은	-16552
나비	-16553
내려	-16554
네요	-16555
니크	-16556
다툼	-16557
라트	-16558
량에	-16559
런을	-16560
럴드	-16561
레인	-16562
레코	-16563
련된	-16564
렸기	-16565
림에	-16566
마켓	-16567
메르	-16568
목과	-16569
무기	-16570
문서	-16571
방어	-16572
배의	-16573
백과	-16574
보유	-16575
보존	-16576
보좌	-16577
본은	-16578
봉악	-16579
봤다	-16580
사냥	-16581
사전	-16582
서울	-16583
설로	-16584
성한	-16585
수학	-16586
순위	-16587
쉬는	-16588
실장	-16589
양과	-16590
역한	-16591
예요	-16592
오염	-16593
외로	-16594
요테	-16595
용과	-16596
육군	-16597
일라	-16598
일인	-16599
자면	-16600
자위	-16601
작의	-16602
장군	-16603
저우	-16604
적일	-16605
전화	-16606
점검	-16607
제비	-16608
준과	-16609
줄이	-16610
중을	-16611
지드	-16612
진도	-16613
쯤에	-16614
창원	-16615
천시	-16616
총리	-16617
추진	-16618
충은	-16619
치노	-16620
카미	-16621
쿠호	-16622
터로	-16623
토요	-16624
투르	-16625
파인	-16626
패로	-16627
프턴	-16628
플릿	-16629
피스	-16630
함마	-16631
허를	-16632
혁신	-16633
현에	-16634
후쿠	-16635
훈장	-16636
희와	-16637
히기	-16638
▁가가	-16639
▁가도	-16640
▁가려	-16641
▁가부	-16642
▁간토	-16643
▁값이	-16644
▁강점	-16645
▁갖지	-16646
▁객원	-16647
▁거스	-16648
▁것들	-16649
▁경사	-16650
▁경의	-16651
▁계주	-16652
▁고찰	-16653
▁공립	-16654
▁공명	-16655
▁공익	-16656
▁과테	-16657
▁관악	-16658
▁관행	-16659
▁광견	-16660
▁광역	-16661
▁굳이	-16662
▁권의	-16663
▁규격	-16664
▁규합	-16665
▁그간	-16666
▁그대	-16667
▁근원	-16668
▁글은	-16669
▁급습	-16670
▁길에	-16671
▁김수	-16672
▁김순	-16673
▁김원	-16674
▁김유	-16675
▁깊게	-16676
▁끝을	-16677
▁끼친	-16678
▁나지	-16679
▁남로	-16680
▁남악	-16681
▁낮다	-16682
▁내비	-16683
▁낸다	-16684
▁네버	-16685
▁년째	-16686
▁노사	-16687
▁누락	-16688
▁늙은	-16689
▁다크	-16690
▁다해	-16691
▁당이	-16692
▁대국	-16693
▁덕에	-16694
▁도읍	-16695
▁돌보	-16696
▁돼지	-16697
▁되던	-16698
▁두뇌	-16699
▁뒷날	-16700
▁듣지	-16701
▁딤미	-16702
▁딸의	-16703
▁랭커	-16704
▁레온	-16705
▁리치	-16706
▁리히	-16707
▁릴리	-16708
▁마땅	-16709
▁마스	-16710
▁막바	-16711
▁만세	-16712
▁말콤	-16713
▁매도	-16714
▁매듭	-16715
▁매리	-16716
▁먼지	-16717
▁명사	-16718
▁명종	-16719
▁모모	-16720
▁무비	-16721
▁무실	-16722
▁무자	-16723
▁문의	-16724
▁미얀	-16725
▁미흡	-16726
▁박봄	-16727
▁박성	-16728
▁박은	-16729
▁박재	-16730
▁반지	-16731
▁발병	-16732
▁발칸	-16733
▁백년	-16734
▁범람	-16735
▁보궐	-16736
▁보나	-16737
▁보며	-16738
▁보스	-16739
▁보험	-16740
▁본거	-16741
▁부시	-16742
▁부응	-16743
▁분개	-16744
▁불린	-16745
▁불분	-16746
▁불신	-16747
▁비오	-16748
▁빚을	-16749
▁사교	-16750
▁사르	-16751
▁사서	-16752
▁삼는	-16753
▁삼두	-16754
▁삼은	-16755
▁상무	-16756
▁상해	-16757
▁생길	-16758
▁서두	-16759
▁선체	-16760
▁성행	-16761
▁세컨	-16762
▁소작	-16763
▁수료	-16764
▁숙빈	-16765
▁스칸	-16766
▁스킬	-16767
▁스텝	-16768
▁스팍	-16769
▁승하	-16770
▁시로	-16771
▁신병	-16772
▁신식	-16773
▁실효	-16774
▁쏘나	-16775
▁아픈	-16776
▁안겨	-16777
▁알류	-16778
▁앞선	-16779
▁양무	-16780
▁어둡	-16781
▁엄마	-16782
▁영문	-16783
▁예매	-16784
▁오류	-16785
▁오슈	-16786
▁옳지	-16787
▁와중	-16788
▁완투	-16789
▁왔던	-16790
▁요하	-16791
▁우방	-16792
▁우병	-16793
▁원산	-16794
▁원활	-16795
▁월이	-16796
▁위그	-16797
▁율곡	-16798
▁은신	-16799
▁음주	-16800
▁의용	-16801
▁이창	-16802
▁인적	-16803
▁일기	-16804
▁일러	-16805
▁일체	-16806
▁일행	-16807
▁입국	-16808
▁잊혀	-16809
▁자란	-16810
▁자부	-16811
▁잠깐	-16812
▁장벽	-16813
▁적개	-16814
▁전경	-16815
▁전초	-16816
▁절망	-16817
▁절충	-16818
▁점의	-16819
▁정종	-16820
▁제독	-16821
▁제자	-16822
▁조계	-16823
▁조력	-16824
▁조인	-16825
▁조차	-16826
▁조타	-16827
▁종용	-16828
▁좌표	-16829
▁중위	-16830
▁쥬얼	-16831
▁지체	-16832
▁지탱	-16833
▁진료	-16834
▁질서	-16835
▁차장	-16836
▁참수	-16837
▁체력	-16838
▁추수	-16839
▁추숭	-16840
▁추징	-16841
▁춘추	-16842
▁친권	-16843
▁친위	-16844
▁카리	-16845
▁코다	-16846
▁코믹	-16847
▁코트	-16848
▁쿼드	-16849
▁타운	-16850
▁탈취	-16851
▁토륨	-16852
▁퇴임	-16853
▁퇴출	-16854
▁투병	-16855
▁트와	-16856
▁파스	-16857
▁파장	-16858
▁파편	-16859
▁팔로	-16860
▁펑크	-16861
▁폐렴	-16862
▁폭풍	-16863
▁피드	-16864
▁피라	-16865
▁피쳐	-16866
▁필드	-16867
▁학력	-16868
▁학원	-16869
▁한꺼	-16870
▁할로	-16871
▁함선	-16872
▁향년	-16873
▁향수	-16874
▁허드	-16875
▁헤지	-16876
▁혈액	-16877
▁호엔	-16878
▁홈구	-16879
▁회수	-16880
▁후방	-16881
▁흉내	-16882
감으로	-16883
기기도	-16884
났는데	-16885
났으나	-16886
당한다	-16887
동에서	-16888
됐는데	-16889
들이나	-16890
량으로	-16891
러에게	-16892
루스는	-16893
목에서	-16894
민들을	-16895
버스는	-16896
보드를	-16897
부에게	-16898
부에는	-16899
선언을	-16900
소송을	-16901
아버지	-16902
에너지	-16903
연하게	-16904
였기에	-16905
운동은	-16906
이거나	-16907
익스피	-16908
자이며	-16909
지역은	-16910
체제를	-16911
커니즘	-16912
터에서	-16913
트리올	-16914
파들은	-16915
학교의	-16916
해지자	-16917
회의의	-16918
▁가담한	-16919
▁가만히	-16920
▁각본을	-16921
▁감정이	-16922
▁강대국	-16923
▁개발이	-16924
▁개정을	-16925
▁개체의	-16926
▁거짓말	-16927
▁건물이	-16928
▁계약에	-16929
▁고티에	-16930
▁공감을	-16931
▁공사에	-16932
▁공헌을	-16933
▁공화정	-16934
▁과거를	-16935
▁과제를	-16936
▁광화문	-16937
▁교육에	-16938
▁교육이	-16939
▁구간이	-16940
▁구단은	-16941
▁구실을	-16942
▁구체화	-16943
▁국민과	-16944
▁군대와	-16945
▁권한은	-16946
▁그녀와	-16947
▁근로자	-16948
▁급진적	-16949
▁기능적	-16950
▁기병대	-16951
▁끝나자	-16952
▁끝내고	-16953
▁나이지	-16954
▁나타낸	-16955
▁내었다	-16956
▁노예로	-16957
▁놀라게	-16958
▁눈으로	-16959
▁다리가	-16960
▁다수를	-16961
▁다음의	-16962
▁다행히	-16963
▁닥터가	-16964
▁당선된	-16965
▁대결을	-16966
▁대상에	-16967
▁대타로	-16968
▁도저히	-16969
▁도쿄에	-16970
▁독일군	-16971
▁돌아간	-16972
▁돌연변	-16973
▁동료인	-16974
▁동부전	-16975
▁동아리	-16976
▁땅으로	-16977
▁로마가	-16978
▁롤리타	-16979
▁릴번은	-16980
▁마련한	-16981
▁마오는	-16982
▁막판에	-16983
▁만화를	-16984
▁맡겼다	-16985
▁맡기고	-16986
▁매트릭	-16987
▁머리카	-16988
▁멤버가	-16989
▁명령이	-16990
▁모르고	-16991
▁목록에	-16992
▁무대로	-16993
▁문서에	-16994
▁문서의	-16995
▁문자의	-16996
▁문학의	-16997
▁물질의	-16998
▁미래를	-16999
▁바뀌는	-17000
▁바람이	-17001
▁반대를	-17002
▁발견은	-17003
▁방사능	-17004
▁방송인	-17005
▁방식에	-17006
▁베르사	-17007
▁변희재	-17008
▁별명을	-17009
▁병사를	-17010
▁보도에	-17011
▁보았을	-17012
▁복귀를	-17013
▁부부는	-17014
▁북측의	-17015
▁분쟁을	-17016
▁불리고	-17017
▁불편한	-17018
▁비판에	-17019
▁빠르고	-17020
▁사무총	-17021
▁사상이	-17022
▁사업은	-17023
▁산업의	-17024
▁상대팀	-17025
▁새마을	-17026
▁생명을	-17027
▁생존을	-17028
▁생활의	-17029
▁서로의	-17030
▁선수단	-17031
▁선수인	-17032
▁선정된	-17033
▁설명이	-17034
▁성격은	-17035
▁성질이	-17036
▁세계가	-17037
▁세우는	-17038
▁세우며	-17039
▁소유한	-17040
▁스카이	-17041
▁스톤이	-17042
▁시공간	-17043
▁신들은	-17044
▁신뢰를	-17045
▁신호가	-17046
▁실점을	-17047
▁심리적	-17048
▁쓰기도	-17049
▁쓰시마	-17050
▁쓰여진	-17051
▁쓰였다	-17052
▁아비뇽	-17053
▁안보리	-17054
▁않기로	-17055
▁알렉스	-17056
▁알베르	-17057
▁어워즈	-17058
▁어쩌면	-17059
▁에이브	-17060
▁연대를	-17061
▁열렸던	-17062
▁열차의	-17063
▁영국이	-17064
▁영역에	-17065
▁예술의	-17066
▁올라온	-17067
▁올라와	-17068
▁왕권을	-17069
▁외부의	-17070
▁요소로	-17071
▁용도로	-17072
▁우간다	-17073
▁우박이	-17074
▁위치는	-17075
▁유능한	-17076
▁의사의	-17077
▁이란의	-17078
▁이론과	-17079
▁이재명	-17080
▁이해가	-17081
▁일리노	-17082
▁입혔다	-17083
▁있듯이	-17084
▁있어도	-17085
▁자살을	-17086
▁작전에	-17087
▁작전이	-17088
▁잘못을	-17089
▁장군은	-17090
▁장악한	-17091
▁장타율	-17092
▁저스틴	-17093
▁적당한	-17094
▁전선을	-17095
▁전역을	-17096
▁접근할	-17097
▁정수장	-17098
▁제국에	-17099
▁제도에	-17100
▁조약이	-17101
▁조현병	-17102
▁종류는	-17103
▁지내고	-17104
▁찍었다	-17105
▁천황이	-17106
▁초이스	-17107
▁총장이	-17108
▁측면이	-17109
▁친분이	-17110
▁카를로	-17111
▁코스타	-17112
▁쾌거를	-17113
▁클레이	-17114
▁타임즈	-17115
▁태그팀	-17116
▁태평천	-17117
▁텔레비	-17118
▁토르가	-17119
▁토트넘	-17120
▁투르크	-17121
▁투어는	-17122
▁튀코의	-17123
▁트로트	-17124
▁특별법	-17125
▁특수전	-17126
▁팀에서	-17127
▁팔았다	-17128
▁팬클럽	-17129
▁페르소	-17130
▁포로가	-17131
▁포인트	-17132
▁폭력을	-17133
▁피하고	-17134
▁필두로	-17135
▁하는지	-17136
▁학생이	-17137
▁한마디	-17138
▁해달이	-17139
▁해병대	-17140
▁해안에	-17141
▁행진을	-17142
▁혁명이	-17143
▁환자의	-17144
▁활약한	-17145
▁회사인	-17146
▁효과는	-17147
▁후백제	-17148
▁후보와	-17149
▁훈장을	-17150
▁훌린이	-17151
▁히로부	-17152
▁힘들다	-17153
기관으로	-17154
들에서는	-17155
부로부터	-17156
연구소의	-17157
우수연기	-17158
▁가르쳤다	-17159
▁가우스는	-17160
▁가정폭력	-17161
▁가족들이	-17162
▁개최했다	-17163
▁것이었고	-17164
▁결정한다	-17165
▁경기장에	-17166
▁고등교육	-17167
▁고조선의	-17168
▁공연에서	-17169
▁관객수를	-17170
▁관리하는	-17171
▁교육심리	-17172
▁구로사키	-17173
▁국가안보	-17174
▁국가안전	-17175
▁국내에서	-17176
▁국민들은	-17177
▁그렇다면	-17178
▁급격하게	-17179
▁나름대로	-17180
▁나카무라	-17181
▁내에서도	-17182
▁내에서의	-17183
▁내주었다	-17184
▁늑대들은	-17185
▁대응하기	-17186
▁독일군의	-17187
▁동일하게	-17188
▁드러난다	-17189
▁등장하며	-17190
▁러시아어	-17191
▁류준열은	-17192
▁마디부터	-17193
▁멤버들은	-17194
▁몬트리올	-17195
▁미쓰비시	-17196
▁바뀌면서	-17197
▁발전시켜	-17198
▁발전했다	-17199
▁배우이다	-17200
▁베어스는	-17201
▁벨라루스	-17202
▁변호사는	-17203
▁병력으로	-17204
▁보인다고	-17205
▁보호하는	-17206
▁부인했다	-17207
▁부정하고	-17208
▁분석하여	-17209
▁블랙홀이	-17210
▁비교하여	-17211
▁사람들에	-17212
▁사람이다	-17213
▁상하이에	-17214
▁선정했다	-17215
▁설립했다	-17216
▁설명하기	-17217
▁세기부터	-17218
▁속에서도	-17219
▁송혜교는	-17220
▁수상하는	-17221
▁스타리그	-17222
▁스페인은	-17223
▁시민들을	-17224
▁아오모리	-17225
▁않겠다는	-17226
▁알렉산더	-17227
▁앨범에서	-17228
▁야마가타	-17229
▁약속했다	-17230
▁언론에서	-17231
▁에라스뮈	-17232
▁여겨지고	-17233
▁예정되어	-17234
▁오카자키	-17235
▁올라간다	-17236
▁와일러는	-17237
▁원동력이	-17238
▁유리하게	-17239
▁윤잉에게	-17240
▁이루어질	-17241
▁이리하여	-17242
▁이벤트를	-17243
▁이소선은	-17244
▁이순신은	-17245
▁이해하지	-17246
▁인터스텔	-17247
▁임명했다	-17248
▁입학했다	-17249
▁있었기에	-17250
▁자동차를	-17251
▁자동차의	-17252
▁장소에서	-17253
▁정규앨범	-17254
▁제공했다	-17255
▁제기되어	-17256
▁제시하고	-17257
▁주변에서	-17258
▁주병진은	-17259
▁주장하여	-17260
▁중단하고	-17261
▁중이었다	-17262
▁지지율을	-17263
▁지지율이	-17264
▁진행하고	-17265
▁처리하는	-17266
▁청와대가	-17267
▁청와대의	-17268
▁체결하고	-17269
▁체계적인	-17270
▁체코슬로	-17271
▁총장으로	-17272
▁최소한의	-17273
▁추가적인	-17274
▁추천으로	-17275
▁충청남도	-17276
▁카스트로	-17277
▁캄브리아	-17278
▁콜롬비아	-17279
▁클럽에서	-17280
▁클레멘스	-17281
▁터브먼의	-17282
▁통증으로	-17283
▁패배했다	-17284
▁피해자가	-17285
▁한국독립	-17286
▁한국방송	-17287
▁한꺼번에	-17288
▁한미연합	-17289
▁행정구역	-17290
▁활약했다	-17291
▁후보에게	-17292
▁후임으로	-17293
▁휴대전화	-17294
▁강남스타일	-17295
▁노골적으로	-17296
▁만들었으며	-17297
▁민주통합당	-17298
▁받아들이고	-17299
▁발표하면서	-17300
▁블라디미르	-17301
▁블리자드는	-17302
▁사용하기도	-17303
▁사회적으로	-17304
▁수록되었다	-17305
▁수상하였고	-17306
▁순천대학교	-17307
▁알렉산데르	-17308
▁어워즈에서	-17309
▁연구자들은	-17310
▁완성되었다	-17311
▁정부로부터	-17312
▁졸업하였다	-17313
▁주한미군이	-17314
▁체포되었다	-17315
▁출연하였고	-17316
▁큰까마귀는	-17317
▁토이트베르	-17318
▁파이어폭스	-17319
▁평론가들은	-17320
▁프로그램이	-17321
▁프로젝트는	-17322
▁프로젝트의	-17323
▁플루토늄의	-17324
▁한나라당의	-17325
▁합류하였다	-17326
여자고등학교	-17327
▁교육과학기술	-17328
▁룬트슈테트는	-17329
▁스카이라인을	-17330
▁신한청년당은	-17331
▁싱어송라이터	-17332
▁안토니우스의	-17333
▁커뮤니케이션	-17334
▁알로사우루스의	-17335
▁옥타비아누스가	-17336
▁유럽찌르레기의	-17337
▁«	-17338
▁ł	-17339
▁公	-17340
▁北	-17341
▁故	-17342
▁水	-17343
▁美	-17344
▁雍	-17345
▁黃	-17346
▁꿀	-17347
▁끄	-17348
▁댈	-17349
▁됨	-17350
▁딥	-17351
▁렙	-17352
▁뢰	-17353
▁뤼	-17354
▁므	-17355
▁벅	-17356
▁쉘	-17357
▁씩	-17358
▁얕	-17359
▁엥	-17360
▁탭	-17361
▁텔	-17362
學校	-17363
가서	-17364
가시	-17365
것이	-17366
과정	-17367
교사	-17368
기억	-17369
꾸로	-17370
나갈	-17371
나스	-17372
네어	-17373
네트	-17374
누엘	-17375
당히	-17376
덩이	-17377
랐던	-17378
랭킹	-17379
량과	-17380
레도	-17381
르네	-17382
린화	-17383
링이	-17384
마쓰	-17385
마어	-17386
마한	-17387
맥을	-17388
바둑	-17389
반대	-17390
반에	-17391
발로	-17392
번은	-17393
보병	-17394
보복	-17395
보전	-17396
복합	-17397
분은	-17398
브스	-17399
브의	-17400
비행	-17401
사장	-17402
산성	-17403
상어	-17404
생은	-17405
서비	-17406
신저	-17407
실업	-17408
약이	-17409
언론	-17410
여대	-17411
여우	-17412
온은	-17413
왔을	-17414
위성	-17415
임에	-17416
있을	-17417
있지	-17418
자츠	-17419
전서	-17420
조각	-17421
좌에	-17422
죄를	-17423
준이	-17424
중계	-17425
쪽을	-17426
처벌	-17427
철은	-17428
청구	-17429
체대	-17430
축을	-17431
코르	-17432
코쿠	-17433
크스	-17434
킨슨	-17435
태가	-17436
통과	-17437
투리	-17438
티가	-17439
티와	-17440
파크	-17441
편의	-17442
품에	-17443
플러	-17444
피오	-17445
하긴	-17446
하되	-17447
하진	-17448
함의	-17449
합작	-17450
항쟁	-17451
형인	-17452
혜공	-17453
효과	-17454
희정	-17455
히로	-17456
▁가드	-17457
▁각성	-17458
▁간청	-17459
▁같고	-17460
▁개장	-17461
▁건네	-17462
▁결장	-17463
▁경복	-17464
▁계시	-17465
▁고작	-17466
▁공고	-17467
▁과다	-17468
▁과연	-17469
▁과일	-17470
▁관용	-17471
▁광산	-17472
▁교구	-17473
▁교역	-17474
▁교전	-17475
▁구가	-17476
▁구리	-17477
▁국도	-17478
▁군데	-17479
▁귀납	-17480
▁귀속	-17481
▁귀엽	-17482
▁귀화	-17483
▁그건	-17484
▁그후	-17485
▁근교	-17486
▁기금	-17487
▁기득	-17488
▁기분	-17489
▁기어	-17490
▁기피	-17491
▁김승	-17492
▁김창	-17493
▁까다	-17494
▁까치	-17495
▁깔끔	-17496
▁깨고	-17497
▁끊어	-17498
▁나노	-17499
▁낙오	-17500
▁날은	-17501
▁남겼	-17502
▁남조	-17503
▁내쫓	-17504
▁농경	-17505
▁농성	-17506
▁놓인	-17507
▁누릴	-17508
▁눈물	-17509
▁느슨	-17510
▁단말	-17511
▁당국	-17512
▁대포	-17513
▁돌을	-17514
▁돕는	-17515
▁동국	-17516
▁두께	-17517
▁둔다	-17518
▁드릴	-17519
▁등등	-17520
▁디렉	-17521
▁딸은	-17522
▁람보	-17523
▁레바	-17524
▁로펌	-17525
▁루머	-17526
▁루비	-17527
▁리가	-17528
▁마드	-17529
▁만드	-17530
▁많을	-17531
▁말소	-17532
▁맞물	-17533
▁맞춘	-17534
▁멀어	-17535
▁모를	-17536
▁무겁	-17537
▁무혐	-17538
▁문신	-17539
▁물체	-17540
▁미사	-17541
▁미키	-17542
▁민영	-17543
▁밀고	-17544
▁바덴	-17545
▁바예	-17546
▁박스	-17547
▁박연	-17548
▁박철	-17549
▁배수	-17550
▁배타	-17551
▁배터	-17552
▁베른	-17553
▁변론	-17554
▁보정	-17555
▁보즈	-17556
▁부검	-17557
▁부리	-17558
▁북상	-17559
▁북위	-17560
▁분향	-17561
▁비치	-17562
▁사면	-17563
▁사신	-17564
▁사학	-17565
▁살에	-17566
▁상정	-17567
▁서거	-17568
▁석을	-17569
▁섞인	-17570
▁성리	-17571
▁성은	-17572
▁성종	-17573
▁세라	-17574
▁소나	-17575
▁소다	-17576
▁손잡	-17577
▁솔트	-17578
▁쇄국	-17579
▁수산	-17580
▁숙부	-17581
▁순서	-17582
▁슈팅	-17583
▁스퀘	-17584
▁스텔	-17585
▁스톡	-17586
▁승자	-17587
▁시국	-17588
▁시흥	-17589
▁신센	-17590
▁신예	-17591
▁신통	-17592
▁실은	-17593
▁쌍의	-17594
▁않던	-17595
▁암모	-17596
▁압수	-17597
▁애머	-17598
▁야권	-17599
▁어둠	-17600
▁어류	-17601
▁어리	-17602
▁에다	-17603
▁여군	-17604
▁여중	-17605
▁연산	-17606
▁열도	-17607
▁영락	-17608
▁예견	-17609
▁예금	-17610
▁예배	-17611
▁예속	-17612
▁옐로	-17613
▁오게	-17614
▁오차	-17615
▁옥스	-17616
▁옹립	-17617
▁와는	-17618
▁용인	-17619
▁우드	-17620
▁우아	-17621
▁우월	-17622
▁원명	-17623
▁원유	-17624
▁월을	-17625
▁월터	-17626
▁유관	-17627
▁유료	-17628
▁유보	-17629
▁유정	-17630
▁유폐	-17631
▁유화	-17632
▁윤보	-17633
▁윤원	-17634
▁의욕	-17635
▁이낙	-17636
▁이븐	-17637
▁이완	-17638
▁이우	-17639
▁이원	-17640
▁이지	-17641
▁이치	-17642
▁이케	-17643
▁이홍	-17644
▁인자	-17645
▁인질	-17646
▁인체	-17647
▁일생	-17648
▁일요	-17649
▁입지	-17650
▁있은	-17651
▁잊지	-17652
▁자고	-17653
▁자릿	-17654
▁자막	-17655
▁자책	-17656
▁장래	-17657
▁재검	-17658
▁재상	-17659
▁재앙	-17660
▁재창	-17661
▁전단	-17662
▁전래	-17663
▁절감	-17664
▁절도	-17665
▁접한	-17666
▁정략	-17667
▁정청	-17668
▁제왕	-17669
▁졌다	-17670
▁조광	-17671
▁조류	-17672
▁조장	-17673
▁종친	-17674
▁좋게	-17675
▁좋을	-17676
▁죄를	-17677
▁주저	-17678
▁줄기	-17679
▁중등	-17680
▁쥐고	-17681
▁증기	-17682
▁지브	-17683
▁지에	-17684
▁진해	-17685
▁진흙	-17686
▁짐발	-17687
▁짐작	-17688
▁쪽은	-17689
▁차고	-17690
▁차를	-17691
▁차오	-17692
▁책이	-17693
▁천우	-17694
▁청순	-17695
▁체스	-17696
▁초당	-17697
▁초상	-17698
▁추궁	-17699
▁층을	-17700
▁친미	-17701
▁칭송	-17702
▁캐피	-17703
▁캠벨	-17704
▁컴필	-17705
▁켈빈	-17706
▁클랜	-17707
▁키우	-17708
▁탄탄	-17709
▁탈영	-17710
▁탐지	-17711
▁테니	-17712
▁통솔	-17713
▁투여	-17714
▁투항	-17715
▁판금	-17716
▁퍼거	-17717
▁편도	-17718
▁평면	-17719
▁포항	-17720
▁푸시	-17721
▁풀먼	-17722
▁핑클	-17723
▁하니	-17724
▁하반	-17725
▁하순	-17726
▁학창	-17727
▁한명	-17728
▁할당	-17729
▁핸드	-17730
▁호랑	-17731
▁호위	-17732
▁화소	-17733
▁황국	-17734
▁회부	-17735
▁효고	-17736
▁후대	-17737
▁히스	-17738
▁힘썼	-17739
가락을	-17740
갔는데	-17741
갔지만	-17742
공무원	-17743
공산당	-17744
기간을	-17745
기관을	-17746
기술을	-17747
끼리의	-17748
니아를	-17749
당하여	-17750
됐지만	-17751
들처럼	-17752
디스는	-17753
레이트	-17754
론에서	-17755
문제에	-17756
미르의	-17757
번호를	-17758
상태가	-17759
상태에	-17760
수소영	-17761
스와프	-17762
시간이	-17763
에게로	-17764
인들에	-17765
있다고	-17766
자에서	-17767
정책에	-17768
조에서	-17769
조차도	-17770
중공업	-17771
지역을	-17772
체계를	-17773
쳤다고	-17774
쳤다는	-17775
캅카스	-17776
코스트	-17777
타에서	-17778
프레스	-17779
하려던	-17780
하시는	-17781
행동을	-17782
협회는	-17783
화에서	-17784
▁가격은	-17785
▁가디언	-17786
▁가뭄이	-17787
▁가지며	-17788
▁가하는	-17789
▁간사이	-17790
▁감독한	-17791
▁갔다가	-17792
▁강글레	-17793
▁강조한	-17794
▁개구리	-17795
▁거꾸로	-17796
▁거두며	-17797
▁거두어	-17798
▁거액의	-17799
▁걸쳐서	-17800
▁검사가	-17801
▁겨울에	-17802
▁경험한	-17803
▁경혜공	-17804
▁공간의	-17805
▁공연에	-17806
▁공작의	-17807
▁공장을	-17808
▁공장이	-17809
▁과격한	-17810
▁과제로	-17811
▁구멍이	-17812
▁국왕의	-17813
▁국유화	-17814
▁국회가	-17815
▁군단을	-17816
▁군단이	-17817
▁군으로	-17818
▁군인이	-17819
▁권력의	-17820
▁권리가	-17821
▁궤도는	-17822
▁규정에	-17823
▁그것과	-17824
▁극찬을	-17825
▁기네스	-17826
▁기록인	-17827
▁기반이	-17828
▁기억을	-17829
▁기자가	-17830
▁꼽았다	-17831
▁끝났고	-17832
▁나간다	-17833
▁나라다	-17834
▁나오게	-17835
▁나폴리	-17836
▁날에는	-17837
▁남성이	-17838
▁남았다	-17839
▁내렸고	-17840
▁내지는	-17841
▁논란의	-17842
▁느끼지	-17843
▁다이어	-17844
▁단체가	-17845
▁당하여	-17846
▁대사관	-17847
▁대학을	-17848
▁대화가	-17849
▁데옹은	-17850
▁도리를	-17851
▁동물이	-17852
▁동의를	-17853
▁동작을	-17854
▁등에게	-17855
▁레논은	-17856
▁로스트	-17857
▁막았다	-17858
▁만명이	-17859
▁만장일	-17860
▁만큼의	-17861
▁명에게	-17862
▁모델은	-17863
▁모습과	-17864
▁무렵에	-17865
▁무척추	-17866
▁문제도	-17867
▁문학적	-17868
▁미즈는	-17869
▁미즈와	-17870
▁민감한	-17871
▁바치는	-17872
▁박사는	-17873
▁반하여	-17874
▁발견을	-17875
▁밝히는	-17876
▁방식이	-17877
▁방향이	-17878
▁배경이	-17879
▁밴드를	-17880
▁버리는	-17881
▁벌이고	-17882
▁법칙에	-17883
▁베테랑	-17884
▁병력과	-17885
▁보니파	-17886
▁부근의	-17887
▁부문을	-17888
▁부적절	-17889
▁북한과	-17890
▁분부터	-17891
▁분야는	-17892
▁불과한	-17893
▁브루노	-17894
▁비극의	-17895
▁비판의	-17896
▁비해서	-17897
▁비핵화	-17898
▁뽑혔다	-17899
▁사라져	-17900
▁사람에	-17901
▁사무실	-17902
▁사후에	-17903
▁상태는	-17904
▁새겨진	-17905
▁생겨나	-17906
▁생기게	-17907
▁생명이	-17908
▁서적을	-17909
▁선거구	-17910
▁성능을	-17911
▁성소수	-17912
▁세계로	-17913
▁세드나	-17914
▁세번째	-17915
▁세자로	-17916
▁소나타	-17917
▁소닉의	-17918
▁소련을	-17919
▁손실을	-17920
▁송파구	-17921
▁수단이	-17922
▁수명은	-17923
▁수비를	-17924
▁수사가	-17925
▁수컷은	-17926
▁수행한	-17927
▁스캔들	-17928
▁스톤의	-17929
▁시도가	-17930
▁시도한	-17931
▁시위에	-17932
▁신고를	-17933
▁신드롬	-17934
▁신시내	-17935
▁실권을	-17936
▁실수로	-17937
▁실시간	-17938
▁심에서	-17939
▁싱글은	-17940
▁싸웠다	-17941
▁쌍둥이	-17942
▁아레나	-17943
▁아이러	-17944
▁안타깝	-17945
▁않거나	-17946
▁않겠다	-17947
▁알프레	-17948
▁암컷이	-17949
▁양식을	-17950
▁양자로	-17951
▁어려울	-17952
▁언더우	-17953
▁언론사	-17954
▁얼굴들	-17955
▁없었을	-17956
▁없이는	-17957
▁여호와	-17958
▁연평해	-17959
▁열렬한	-17960
▁영상은	-17961
▁예수가	-17962
▁예술적	-17963
▁예이다	-17964
▁오디오	-17965
▁오류가	-17966
▁완벽히	-17967
▁왕국을	-17968
▁외쳤다	-17969
▁외치며	-17970
▁우위를	-17971
▁위주의	-17972
▁유가족	-17973
▁유소년	-17974
▁유지에	-17975
▁이렇다	-17976
▁이론적	-17977
▁이름과	-17978
▁이벤트	-17979
▁이상은	-17980
▁이석기	-17981
▁이이의	-17982
▁이익이	-17983
▁이혼을	-17984
▁일에도	-17985
▁일제의	-17986
▁일종인	-17987
▁일하던	-17988
▁임무는	-17989
▁입각한	-17990
▁작가가	-17991
▁작위를	-17992
▁장관에	-17993
▁장소를	-17994
▁재직한	-17995
▁재판에	-17996
▁전기적	-17997
▁전열을	-17998
▁전자의	-17999
▁전차를	-18000
▁전하고	-18001
▁전한다	-18002
▁정신이	-18003
▁제공할	-18004
▁제네바	-18005
▁제노바	-18006
▁제시된	-18007
▁제안한	-18008
▁제품을	-18009
▁조건이	-18010
▁조선은	-18011
▁조지프	-18012
▁조치가	-18013
▁조치에	-18014
▁종교를	-18015
▁종으로	-18016
▁주기로	-18017
▁죽음이	-18018
▁중성미	-18019
▁증상이	-18020
▁지구형	-18021
▁지닌다	-18022
▁지시에	-18023
▁지위는	-18024
▁직무를	-18025
▁진상규	-18026
▁집단은	-18027
▁차가운	-18028
▁차량을	-18029
▁참석해	-18030
▁참으로	-18031
▁청문회	-18032
▁체계가	-18033
▁총독부	-18034
▁촬영에	-18035
▁최선의	-18036
▁출시된	-18037
▁충돌로	-18038
▁취약한	-18039
▁취지의	-18040
▁컴백을	-18041
▁클로드	-18042
▁탄압을	-18043
▁탑재한	-18044
▁탤런트	-18045
▁토스카	-18046
▁투자를	-18047
▁튀어나	-18048
▁패스를	-18049
▁페르난	-18050
▁폭넓게	-18051
▁프랜차	-18052
▁플라톤	-18053
▁피타고	-18054
▁하늘을	-18055
▁하므로	-18056
▁학문의	-18057
▁학생의	-18058
▁한다며	-18059
▁한번도	-18060
▁한번에	-18061
▁함께한	-18062
▁함대를	-18063
▁항공모	-18064
▁해달을	-18065
▁했어요	-18066
▁행위로	-18067
▁행하는	-18068
▁혐의에	-18069
▁협회는	-18070
▁확고한	-18071
▁확인한	-18072
▁환자를	-18073
▁회고록	-18074
▁후계자	-18075
▁후대의	-18076
▁휴스턴	-18077
겠습니다	-18078
대학교를	-18079
들에게서	-18080
스트리트	-18081
시키려는	-18082
인이라는	-18083
정상회담	-18084
차트에서	-18085
하기에는	-18086
하더라도	-18087
▁가졌으며	-18088
▁강조한다	-18089
▁강화하고	-18090
▁강희제와	-18091
▁개최되는	-18092
▁결승골을	-18093
▁계획이다	-18094
▁공개하며	-18095
▁공유하고	-18096
▁관리들이	-18097
▁구성하고	-18098
▁국가들의	-18099
▁국민들이	-18100
▁국민의회	-18101
▁군인들이	-18102
▁그만두고	-18103
▁극장에서	-18104
▁기부했다	-18105
▁너무나도	-18106
▁높아졌다	-18107
▁다양하다	-18108
▁단역으로	-18109
▁대상에서	-18110
▁대전으로	-18111
▁더글러스	-18112
▁독일군이	-18113
▁돌아가고	-18114
▁돌파했다	-18115
▁동점골을	-18116
▁되었다가	-18117
▁드러나는	-18118
▁들어가서	-18119
▁따라서는	-18120
▁떨어진다	-18121
▁라즈베리	-18122
▁람보르기	-18123
▁마이애미	-18124
▁말했으며	-18125
▁못한다는	-18126
▁무너지고	-18127
▁무엇보다	-18128
▁문제점이	-18129
▁미시시피	-18130
▁바르샤바	-18131
▁바이마르	-18132
▁반대하고	-18133
▁반박했다	-18134
▁발각되어	-18135
▁발표하는	-18136
▁밝히기도	-18137
▁배우로서	-18138
▁법적으로	-18139
▁보내졌다	-18140
▁보수주의	-18141
▁부여했다	-18142
▁부정부패	-18143
▁부족하다	-18144
▁분류되는	-18145
▁분리되어	-18146
▁불법으로	-18147
▁비판하며	-18148
▁사건에서	-18149
▁사우디아	-18150
▁상호작용	-18151
▁생각하게	-18152
▁생각했던	-18153
▁생산하는	-18154
▁선보였고	-18155
▁성공한다	-18156
▁성장하는	-18157
▁세워졌다	-18158
▁수준이다	-18159
▁슈퍼스타	-18160
▁스케이트	-18161
▁스타일과	-18162
▁시간동안	-18163
▁시리즈는	-18164
▁시스템의	-18165
▁시작하기	-18166
▁신군부는	-18167
▁실시하여	-18168
▁십자군의	-18169
▁아인자츠	-18170
▁않으면서	-18171
▁애리조나	-18172
▁애머스트	-18173
▁엄청나게	-18174
▁에나쓰의	-18175
▁연구하고	-18176
▁연기력을	-18177
▁연합하여	-18178
▁예수께서	-18179
▁오클랜드	-18180
▁올랐으나	-18181
▁올렸으며	-18182
▁요구했고	-18183
▁우리에게	-18184
▁움직임에	-18185
▁움직임은	-18186
▁월까지는	-18187
▁웨일스는	-18188
▁위치에서	-18189
▁위치하고	-18190
▁유지한다	-18191
▁이동했다	-18192
▁이상적인	-18193
▁인물이다	-18194
▁일리노이	-18195
▁일본과의	-18196
▁자동으로	-18197
▁적용되는	-18198
▁적용하여	-18199
▁전체적인	-18200
▁접근하는	-18201
▁정체성을	-18202
▁정치자금	-18203
▁제거하고	-18204
▁제한하는	-18205
▁조력발전	-18206
▁존재했다	-18207
▁종목에서	-18208
▁주도하는	-18209
▁주인공이	-18210
▁주장으로	-18211
▁지점에서	-18212
▁지휘권을	-18213
▁참여하게	-18214
▁채택했다	-18215
▁총회에서	-18216
▁친구들과	-18217
▁칭찬했다	-18218
▁클라이맥	-18219
▁클레오파	-18220
▁트럼프는	-18221
▁판매하는	-18222
▁편지에서	-18223
▁플레이를	-18224
▁하트골드	-18225
▁할지라도	-18226
▁합의했다	-18227
▁해트트릭	-18228
▁혁명으로	-18229
▁형성되어	-18230
▁호족들의	-18231
▁확보하기	-18232
▁회고했다	-18233
▁히데요시	-18234
주식회사를	-18235
지방검찰청	-18236
최우수연기	-18237
캐롤라이나	-18238
▁고등학교에	-18239
▁과학자들이	-18240
▁나폴레옹이	-18241
▁돌파하였다	-18242
▁민중총궐기	-18243
▁보고하였다	-18244
▁비롯되었다	-18245
▁설치하였다	-18246
▁시작되었고	-18247
▁안토니우스	-18248
▁어디까지나	-18249
▁여우주연상	-18250
▁오래전부터	-18251
▁유럽에서는	-18252
▁이론적으로	-18253
▁이루어지며	-18254
▁이야기했다	-18255
▁임명하였다	-18256
▁전리수소영	-18257
▁지지하였다	-18258
▁진행되었고	-18259
▁짐발리스트	-18260
▁차트에서도	-18261
▁판매되었다	-18262
▁플레이어를	-18263
▁피카레스크	-18264
▁한국시리즈	-18265
▁기록하였으며	-18266
▁뮤직비디오가	-18267
▁발렌슈타인은	-18268
▁사회민주주의	-18269
▁소프트웨어를	-18270
▁올림픽에서는	-18271
▁이루어졌으며	-18272
▁이탈리아에서	-18273
▁준결승전에서	-18274
▁사우디아라비아	-18275
▁스테고사우루스	-18276
▁플레이오프에서	-18277
▁오스트레일리아청개	-18278
▁조선민주주의인민공화국은	-18279
▁光	-18280
▁尹	-18281
▁山	-18282
▁康	-18283
▁張	-18284
▁洪	-18285
▁海	-18286
▁道	-18287
▁낚	-18288
▁넌	-18289
▁땄	-18290
▁뮐	-18291
▁벙	-18292
▁샹	-18293
▁얹	-18294
▁쥘	-18295
▁츠	-18296
▁캡	-18297
▁쾰	-18298
▁팻	-18299
▁펩	-18300
▁횃	-18301
가량	-18302
갑의	-18303
거와	-18304
경성	-18305
공연	-18306
관념	-18307
구미	-18308
국적	-18309
귀족	-18310
근을	-18311
나간	-18312
나토	-18313
네센	-18314
녀로	-18315
노와	-18316
니언	-18317
다리	-18318
담배	-18319
대행	-18320
덕궁	-18321
데다	-18322
돈을	-18323
돌아	-18324
동성	-18325
든가	-18326
들만	-18327
디나	-18328
랑을	-18329
레와	-18330
례가	-18331
마루	-18332
먹는	-18333
먼드	-18334
모와	-18335
모인	-18336
못해	-18337
무는	-18338
미한	-18339
바퀴	-18340
버로	-18341
법률	-18342
보도	-18343
부짖	-18344
비상	-18345
빈을	-18346
샤오	-18347
선진	-18348
슈빌	-18349
스톡	-18350
시안	-18351
심과	-18352
씨와	-18353
아들	-18354
아르	-18355
애나	-18356
여름	-18357
연방	-18358
올라	-18359
운이	-18360
움은	-18361
유치	-18362
유키	-18363
이야	-18364
자흐	-18365
잠수	-18366
장도	-18367
장로	-18368
종교	-18369
줘야	-18370
지향	-18371
질러	-18372
집에	-18373
참한	-18374
창의	-18375
처의	-18376
청장	-18377
총계	-18378
축구	-18379
커로	-18380
켓을	-18381
코어	-18382
쾌한	-18383
쿠니	-18384
타마	-18385
탁의	-18386
테크	-18387
토벤	-18388
톱스	-18389
트레	-18390
틀을	-18391
티는	-18392
파괴	-18393
파도	-18394
판과	-18395
팔렌	-18396
퍼의	-18397
표가	-18398
푸스	-18399
하로	-18400
하임	-18401
한지	-18402
해방	-18403
현과	-18404
협상	-18405
화물	-18406
화할	-18407
활성	-18408
≫、≪	-18409
▁가계	-18410
▁가두	-18411
▁가세	-18412
▁가한	-18413
▁갈래	-18414
▁감형	-18415
▁갑신	-18416
▁객실	-18417
▁거처	-18418
▁건이	-18419
▁계의	-18420
▁고다	-18421
▁고체	-18422
▁공언	-18423
▁관동	-18424
▁관점	-18425
▁광부	-18426
▁교정	-18427
▁교직	-18428
▁구마	-18429
▁구장	-18430
▁구절	-18431
▁궁전	-18432
▁그랜	-18433
▁극소	-18434
▁금전	-18435
▁급기	-18436
▁기적	-18437
▁김옥	-18438
▁김인	-18439
▁김한	-18440
▁깨어	-18441
▁끄는	-18442
▁끈질	-18443
▁나빠	-18444
▁나설	-18445
▁나일	-18446
▁낙관	-18447
▁날로	-18448
▁날이	-18449
▁남해	-18450
▁낭독	-18451
▁낮게	-18452
▁내로	-18453
▁내재	-18454
▁내전	-18455
▁너희	-18456
▁넘나	-18457
▁네가	-18458
▁년엔	-18459
▁노련	-18460
▁누명	-18461
▁다듬	-18462
▁다우	-18463
▁달고	-18464
▁답을	-18465
▁당명	-18466
▁대단	-18467
▁대왕	-18468
▁대적	-18469
▁대주	-18470
▁덴노	-18471
▁도를	-18472
▁도맡	-18473
▁돕고	-18474
▁동거	-18475
▁동성	-18476
▁둘의	-18477
▁둥근	-18478
▁둥글	-18479
▁드림	-18480
▁듣게	-18481
▁따돌	-18482
▁때면	-18483
▁라싸	-18484
▁레몬	-18485
▁로보	-18486
▁로열	-18487
▁루가	-18488
▁리를	-18489
▁린다	-18490
▁마루	-18491
▁막이	-18492
▁만류	-18493
▁말년	-18494
▁맛이	-18495
▁망치	-18496
▁매드	-18497
▁매춘	-18498
▁머니	-18499
▁메탄	-18500
▁모션	-18501
▁모스	-18502
▁모하	-18503
▁모후	-18504
▁몸싸	-18505
▁무궁	-18506
▁묶여	-18507
▁문정	-18508
▁문희	-18509
▁물가	-18510
▁물과	-18511
▁미안	-18512
▁미하	-18513
▁민사	-18514
▁믿어	-18515
▁박찬	-18516
▁반경	-18517
▁반포	-18518
▁받자	-18519
▁발송	-18520
▁발효	-18521
▁밤을	-18522
▁방북	-18523
▁방한	-18524
▁버리	-18525
▁버벌	-18526
▁번복	-18527
▁번은	-18528
▁번이	-18529
▁벌써	-18530
▁변함	-18531
▁보답	-18532
▁복제	-18533
▁봤을	-18534
▁부회	-18535
▁분묘	-18536
▁불순	-18537
▁불충	-18538
▁브룸	-18539
▁비서	-18540
▁빌라	-18541
▁사내	-18542
▁사범	-18543
▁사의	-18544
▁사자	-18545
▁사천	-18546
▁사치	-18547
▁산발	-18548
▁상행	-18549
▁샌드	-18550
▁생체	-18551
▁서스	-18552
▁서태	-18553
▁서현	-18554
▁선풍	-18555
▁선한	-18556
▁설리	-18557
▁성주	-18558
▁세븐	-18559
▁세웠	-18560
▁소음	-18561
▁소의	-18562
▁속주	-18563
▁손님	-18564
▁수만	-18565
▁수차	-18566
▁숨은	-18567
▁숫자	-18568
▁시드	-18569
▁시신	-18570
▁시와	-18571
▁시체	-18572
▁식품	-18573
▁신당	-18574
▁신형	-18575
▁실명	-18576
▁안고	-18577
▁안녕	-18578
▁안현	-18579
▁알비	-18580
▁알츠	-18581
▁앤젤	-18582
▁억류	-18583
▁얼어	-18584
▁엄지	-18585
▁역이	-18586
▁연립	-18587
▁연승	-18588
▁열리	-18589
▁오대	-18590
▁오던	-18591
▁오라	-18592
▁올콕	-18593
▁옮겼	-18594
▁왕권	-18595
▁왕래	-18596
▁외할	-18597
▁우상	-18598
▁운현	-18599
▁울라	-18600
▁위태	-18601
▁윌슨	-18602
▁유스	-18603
▁유해	-18604
▁유형	-18605
▁육사	-18606
▁윤상	-18607
▁율법	-18608
▁의류	-18609
▁이황	-18610
▁읽어	-18611
▁읽은	-18612
▁임계	-18613
▁임원	-18614
▁임의	-18615
▁임종	-18616
▁자백	-18617
▁자처	-18618
▁작아	-18619
▁잠을	-18620
[...]
